/*
 * model_data.h — Auto-generated TFLite model for CuantumWiki
 * Model size: 14800 bytes (14.5 KB)
 * Labels: neutral, positivo, urgente, molesto, formal
 * Input: int8[64]
 * Generated by train_tone_model.py
 */

#ifndef MODEL_DATA_H
#define MODEL_DATA_H

#include <cstdint>

// Model: 14800 bytes
alignas(16) const unsigned char tone_model_tflite[] = {
  0x1c, 0x00, 0x00, 0x00, 0x54, 0x46, 0x4c, 0x33, 0x14, 0x00, 0x20, 0x00,
  0x1c, 0x00, 0x18, 0x00, 0x14, 0x00, 0x10, 0x00, 0x0c, 0x00, 0x00, 0x00,
  0x08, 0x00, 0x04, 0x00, 0x14, 0x00, 0x00, 0x00, 0x1c, 0x00, 0x00, 0x00,
  0x8c, 0x00, 0x00, 0x00, 0xe4, 0x00, 0x00, 0x00, 0xc4, 0x2a, 0x00, 0x00,
  0xd4, 0x2a, 0x00, 0x00, 0xe0, 0x38, 0x00, 0x00, 0x03, 0x00, 0x00, 0x00,
  0x01, 0x00, 0x00, 0x00, 0x04, 0x00, 0x00, 0x00, 0x22, 0xd3, 0xff, 0xff,
  0x0c, 0x00, 0x00, 0x00, 0x1c, 0x00, 0x00, 0x00, 0x3c, 0x00, 0x00, 0x00,
  0x0f, 0x00, 0x00, 0x00, 0x73, 0x65, 0x72, 0x76, 0x69, 0x6e, 0x67, 0x5f,
  0x64, 0x65, 0x66, 0x61, 0x75, 0x6c, 0x74, 0x00, 0x01, 0x00, 0x00, 0x00,
  0x04, 0x00, 0x00, 0x00, 0x90, 0xff, 0xff, 0xff, 0x12, 0x00, 0x00, 0x00,
  0x04, 0x00, 0x00, 0x00, 0x08, 0x00, 0x00, 0x00, 0x6f, 0x75, 0x74, 0x70,
  0x75, 0x74, 0x5f, 0x30, 0x00, 0x00, 0x00, 0x00, 0x01, 0x00, 0x00, 0x00,
  0x04, 0x00, 0x00, 0x00, 0x0e, 0xd5, 0xff, 0xff, 0x04, 0x00, 0x00, 0x00,
  0x0c, 0x00, 0x00, 0x00, 0x6b, 0x65, 0x72, 0x61, 0x73, 0x5f, 0x74, 0x65,
  0x6e, 0x73, 0x6f, 0x72, 0x00, 0x00, 0x00, 0x00, 0x02, 0x00, 0x00, 0x00,
  0x34, 0x00, 0x00, 0x00, 0x04, 0x00, 0x00, 0x00, 0xdc, 0xff, 0xff, 0xff,
  0x15, 0x00, 0x00, 0x00, 0x04, 0x00, 0x00, 0x00, 0x13, 0x00, 0x00, 0x00,
  0x43, 0x4f, 0x4e, 0x56, 0x45, 0x52, 0x53, 0x49, 0x4f, 0x4e, 0x5f, 0x4d,
  0x45, 0x54, 0x41, 0x44, 0x41, 0x54, 0x41, 0x00, 0x08, 0x00, 0x0c, 0x00,
  0x08, 0x00, 0x04, 0x00, 0x08, 0x00, 0x00, 0x00, 0x14, 0x00, 0x00, 0x00,
  0x04, 0x00, 0x00, 0x00, 0x13, 0x00, 0x00, 0x00, 0x6d, 0x69, 0x6e, 0x5f,
  0x72, 0x75, 0x6e, 0x74, 0x69, 0x6d, 0x65, 0x5f, 0x76, 0x65, 0x72, 0x73,
  0x69, 0x6f, 0x6e, 0x00, 0x16, 0x00, 0x00, 0x00, 0xdc, 0x29, 0x00, 0x00,
  0xd4, 0x29, 0x00, 0x00, 0xc0, 0x29, 0x00, 0x00, 0xac, 0x29, 0x00, 0x00,
  0x98, 0x29, 0x00, 0x00, 0x74, 0x29, 0x00, 0x00, 0xc4, 0x28, 0x00, 0x00,
  0x34, 0x28, 0x00, 0x00, 0x24, 0x26, 0x00, 0x00, 0xe4, 0x00, 0x00, 0x00,
  0xdc, 0x00, 0x00, 0x00, 0xd4, 0x00, 0x00, 0x00, 0xcc, 0x00, 0x00, 0x00,
  0xc4, 0x00, 0x00, 0x00, 0xbc, 0x00, 0x00, 0x00, 0xb4, 0x00, 0x00, 0x00,
  0xac, 0x00, 0x00, 0x00, 0xa4, 0x00, 0x00, 0x00, 0x9c, 0x00, 0x00, 0x00,
  0x94, 0x00, 0x00, 0x00, 0x74, 0x00, 0x00, 0x00, 0x04, 0x00, 0x00, 0x00,
  0xe2, 0xd5, 0xff, 0xff, 0x04, 0x00, 0x00, 0x00, 0x60, 0x00, 0x00, 0x00,
  0x0c, 0x00, 0x00, 0x00, 0x08, 0x00, 0x0e, 0x00, 0x08, 0x00, 0x04, 0x00,
  0x08, 0x00, 0x00, 0x00, 0x10, 0x00, 0x00, 0x00, 0x28, 0x00, 0x00, 0x00,
  0x00, 0x00, 0x06, 0x00, 0x08, 0x00, 0x04, 0x00, 0x06, 0x00, 0x00, 0x00,
  0x04, 0x00, 0x00, 0x00, 0x01, 0x00, 0x00, 0x00, 0xeb, 0x03, 0x00, 0x00,
  0x0c, 0x00, 0x18, 0x00, 0x14, 0x00, 0x10, 0x00, 0x0c, 0x00, 0x04, 0x00,
  0x0c, 0x00, 0x00, 0x00, 0x75, 0xf6, 0xdd, 0x69, 0xb5, 0x73, 0x66, 0xaf,
  0x02, 0x00, 0x00, 0x00, 0x02, 0x00, 0x00, 0x00, 0x04, 0x00, 0x00, 0x00,
  0x06, 0x00, 0x00, 0x00, 0x32, 0x2e, 0x32, 0x30, 0x2e, 0x30, 0x00, 0x00,
  0x4e, 0xd6, 0xff, 0xff, 0x04, 0x00, 0x00, 0x00, 0x10, 0x00, 0x00, 0x00,
  0x32, 0x2e, 0x32, 0x2e, 0x30, 0x00, 0x00, 0x00, 0x00, 0x00, 0x00, 0x00,
  0x00, 0x00, 0x00, 0x00, 0x68, 0xc8, 0xff, 0xff, 0x6c, 0xc8, 0xff, 0xff,
  0x70, 0xc8, 0xff, 0xff, 0x74, 0xc8, 0xff, 0xff, 0x78, 0xc8, 0xff, 0xff,
  0x7c, 0xc8, 0xff, 0xff, 0x80, 0xc8, 0xff, 0xff, 0x84, 0xc8, 0xff, 0xff,
  0x88, 0xc8, 0xff, 0xff, 0x8c, 0xc8, 0xff, 0xff, 0x92, 0xd6, 0xff, 0xff,
  0x04, 0x00, 0x00, 0x00, 0x30, 0x25, 0x00, 0x00, 0x07, 0x06, 0x03, 0x07,
  0x05, 0x07, 0x00, 0x07, 0xfb, 0x02, 0x03, 0x03, 0xff, 0xf4, 0x08, 0x14,
  0xd0, 0x2d, 0x0b, 0xfc, 0x1d, 0x1d, 0x2c, 0xe4, 0xd4, 0xf9, 0xdc, 0x1b,
  0x3a, 0x14, 0x36, 0x18, 0xf9, 0x34, 0x30, 0xe8, 0xff, 0xe9, 0x03, 0x26,
  0xff, 0xc6, 0xd9, 0xdb, 0x1e, 0x24, 0x06, 0x06, 0x0a, 0x0c, 0xf7, 0xda,
  0xe7, 0x08, 0x04, 0x12, 0x14, 0xfc, 0x19, 0xf9, 0x0c, 0xfb, 0x0e, 0xf7,
  0x22, 0xe6, 0xca, 0xf3, 0xdd, 0x20, 0x02, 0x07, 0x29, 0x38, 0x47, 0x0c,
  0xed, 0xe5, 0xfe, 0xe8, 0x00, 0xe8, 0x0f, 0xb7, 0xf4, 0xac, 0xa5, 0xf4,
  0xfd, 0xd7, 0x15, 0x03, 0x0e, 0xc6, 0x12, 0xea, 0x1e, 0x39, 0xfb, 0xb2,
  0xc4, 0x12, 0x27, 0x3c, 0x2b, 0xd6, 0x07, 0xcd, 0x1c, 0x19, 0x04, 0xf0,
  0x5d, 0xfc, 0xe4, 0x25, 0xf3, 0x29, 0x12, 0x49, 0x50, 0x23, 0x29, 0xcc,
  0xce, 0x18, 0xc6, 0x12, 0xc7, 0x1d, 0x26, 0xcd, 0x27, 0xcf, 0xce, 0xcb,
  0xc8, 0xd5, 0xe5, 0x24, 0x3e, 0xee, 0x3b, 0x0e, 0x0f, 0xc0, 0xed, 0xe2,
  0xfa, 0xcc, 0xab, 0xe5, 0x0a, 0x24, 0x42, 0x22, 0xeb, 0xb7, 0x04, 0xef,
  0x21, 0x18, 0x15, 0x32, 0x18, 0x1d, 0x28, 0x2d, 0x18, 0x03, 0xe8, 0xe4,
  0xef, 0x39, 0xe5, 0x1f, 0x5a, 0x67, 0xd5, 0xda, 0xb9, 0x62, 0x69, 0x72,
  0x5f, 0xd0, 0xe2, 0xa4, 0x2e, 0x61, 0xfa, 0x02, 0x83, 0xb5, 0x8d, 0x8b,
  0xce, 0x50, 0xe9, 0x80, 0x8f, 0x7f, 0x6c, 0x7f, 0x7a, 0x8a, 0x7f, 0xcb,
  0xdb, 0x28, 0xfd, 0xb3, 0xe9, 0x10, 0x1b, 0xf5, 0xef, 0xed, 0x01, 0x13,
  0x42, 0xfa, 0x3e, 0xf4, 0x14, 0x9d, 0xae, 0xe3, 0xe1, 0xe3, 0xa8, 0xdc,
  0x14, 0x66, 0x77, 0x29, 0xe4, 0xa8, 0x01, 0xcc, 0x62, 0x79, 0xad, 0x9b,
  0x93, 0x65, 0x73, 0x6e, 0x69, 0xac, 0x00, 0x9f, 0x51, 0x59, 0x18, 0xe5,
  0xff, 0x28, 0xb4, 0xa9, 0xb9, 0x43, 0x3a, 0x10, 0x1e, 0x0f, 0x38, 0x01,
  0x37, 0xf9, 0x33, 0xdc, 0x1e, 0x09, 0xc0, 0xcf, 0xba, 0x2b, 0x23, 0x1f,
  0x31, 0x11, 0x3c, 0xee, 0x10, 0xfd, 0x11, 0xe0, 0x73, 0x98, 0xdf, 0x14,
  0x07, 0xd0, 0xb0, 0x42, 0x64, 0x54, 0x63, 0xcf, 0xb3, 0xe1, 0xb8, 0xed,
  0xe0, 0x2a, 0xa9, 0xa5, 0xb9, 0x4e, 0x4d, 0xf9, 0x07, 0x26, 0x38, 0x14,
  0x5c, 0xf9, 0x4c, 0xda, 0x51, 0xe1, 0xe5, 0x1a, 0xfd, 0x06, 0xf9, 0x3b,
  0x42, 0x2b, 0x37, 0xd7, 0xcf, 0x09, 0xcf, 0xff, 0x8e, 0xe4, 0xce, 0x9f,
  0x05, 0x1e, 0xf4, 0x80, 0x9a, 0x46, 0x29, 0x7f, 0x73, 0xab, 0x7c, 0xdb,
  0x34, 0xee, 0x17, 0x38, 0x31, 0xf6, 0xe7, 0x27, 0x1f, 0x0e, 0xfc, 0xe5,
  0xd5, 0x14, 0xd0, 0x26, 0xc8, 0x24, 0x33, 0xd1, 0x2d, 0xc5, 0xe7, 0xd0,
  0xca, 0xd1, 0xdb, 0x2c, 0x3b, 0xf2, 0x38, 0x0e, 0x51, 0xc5, 0xe2, 0xf3,
  0xe2, 0xe6, 0xd1, 0x33, 0x4d, 0x25, 0x52, 0xd8, 0xcd, 0xdd, 0xd4, 0xe1,
  0x44, 0x0e, 0xe0, 0xe8, 0xd4, 0x19, 0x18, 0x38, 0x3c, 0xff, 0x2d, 0xd7,
  0xf4, 0x15, 0xe4, 0xf9, 0x5d, 0xaf, 0xe7, 0x23, 0x21, 0x00, 0xe0, 0x35,
  0x4b, 0x4d, 0x46, 0xd3, 0xcc, 0xf1, 0xd2, 0x04, 0x2c, 0xe3, 0x0e, 0x3b,
  0x3f, 0xf0, 0xd2, 0x15, 0x16, 0x1e, 0x0c, 0xf8, 0xd8, 0x12, 0xd9, 0x1d,
  0x09, 0xbc, 0xe1, 0x07, 0x0d, 0xe8, 0xcb, 0xdf, 0x04, 0x57, 0x42, 0x29,
  0xee, 0xdb, 0x00, 0xf0, 0xdc, 0x17, 0x31, 0xc4, 0x20, 0xbc, 0xb7, 0xe7,
  0xdd, 0xbd, 0xe6, 0x0b, 0x26, 0xee, 0x24, 0x06, 0xe1, 0x17, 0x01, 0xba,
  0xea, 0x06, 0x06, 0xe7, 0xec, 0xf1, 0x08, 0x1d, 0x30, 0xec, 0x34, 0xf4,
  0x4b, 0xc0, 0x07, 0x4d, 0x4d, 0x0c, 0xc3, 0x25, 0x2e, 0x48, 0x1b, 0xf8,
  0xb5, 0x06, 0xbb, 0x2d, 0xb9, 0xe3, 0xc4, 0xb3, 0xf6, 0x21, 0xf5, 0xa8,
  0xbf, 0x4e, 0x3a, 0x58, 0x47, 0xb7, 0x52, 0xde, 0xe3, 0x50, 0x54, 0x19,
  0x42, 0xed, 0x12, 0x0d, 0xde, 0xb4, 0xa6, 0xf3, 0x1c, 0x3f, 0x0a, 0x45,
  0x54, 0x63, 0xb6, 0xac, 0xa2, 0x53, 0x60, 0x60, 0x5a, 0xc3, 0x15, 0xad,
  0x41, 0x4b, 0x13, 0xe2, 0x0e, 0x0a, 0xd1, 0xee, 0xde, 0x29, 0x24, 0x0d,
  0x1d, 0x2c, 0x34, 0x04, 0x0e, 0x04, 0x11, 0xe4, 0xeb, 0xbe, 0xa7, 0xd1,
  0xcc, 0x18, 0xd9, 0xc3, 0xef, 0x61, 0x62, 0x43, 0x15, 0xb7, 0x2a, 0xc8,
  0xf2, 0xfb, 0xec, 0xcc, 0xe5, 0xf8, 0xfb, 0xee, 0xfd, 0x0c, 0x1f, 0x18,
  0x1d, 0xe9, 0x20, 0xe5, 0x13, 0x16, 0x2c, 0x2d, 0x24, 0x02, 0x15, 0x1d,
  0x0f, 0xfd, 0xdf, 0xf0, 0xf4, 0x43, 0xe6, 0x1c, 0x4d, 0x0e, 0x1d, 0x5e,
  0x32, 0x36, 0x19, 0x4c, 0x37, 0x28, 0xdd, 0xcf, 0xc2, 0x62, 0xb1, 0x4b,
  0xfe, 0xf6, 0x1e, 0x20, 0x3c, 0xf2, 0xdf, 0xf2, 0xed, 0x08, 0xf3, 0x11,
  0xfb, 0x07, 0xfe, 0x20, 0x57, 0xbe, 0x27, 0x7a, 0x78, 0x17, 0xc3, 0x39,
  0x2e, 0x5a, 0xfb, 0xed, 0xa5, 0x35, 0xa6, 0x50, 0x1e, 0x11, 0x17, 0xfc,
  0x03, 0xe7, 0xfd, 0x2c, 0x17, 0xe2, 0xff, 0xd6, 0xfd, 0x10, 0xf3, 0x11,
  0xb5, 0x24, 0x15, 0xd6, 0x2a, 0xfa, 0x1a, 0xc2, 0xb1, 0xf4, 0xe6, 0x40,
  0x57, 0xec, 0x51, 0x0c, 0xac, 0xde, 0xcf, 0xb5, 0x0a, 0x1b, 0xf6, 0xa3,
  0xb2, 0x4e, 0x29, 0x62, 0x53, 0xb9, 0x58, 0xdb, 0x3a, 0x06, 0xa7, 0xa5,
  0x9b, 0x22, 0x1a, 0x36, 0x4d, 0xfe, 0x57, 0xcb, 0x14, 0xed, 0x19, 0xbd,
  0xba, 0x2d, 0x21, 0xc8, 0x25, 0xf3, 0x1d, 0xc8, 0xc3, 0xe2, 0xdc, 0x39,
  0x4b, 0xf3, 0x48, 0x0c, 0xe5, 0x54, 0x37, 0xf4, 0x13, 0xf8, 0x28, 0x17,
  0xf0, 0xbb, 0xc1, 0xed, 0x31, 0x2f, 0x1d, 0x2a, 0x38, 0x1e, 0xeb, 0x0a,
  0xec, 0x2d, 0x2a, 0x44, 0x40, 0xfa, 0x05, 0xcb, 0xfd, 0x2a, 0xef, 0x01,
  0xea, 0xfc, 0xc8, 0xc1, 0xd7, 0x27, 0x10, 0xe7, 0xf9, 0x2f, 0x3e, 0x24,
  0x2e, 0xe1, 0x36, 0xea, 0xdb, 0x26, 0xd7, 0xb9, 0xe3, 0x2d, 0x32, 0xf1,
  0xf7, 0x10, 0x13, 0x1c, 0x4c, 0xf6, 0x46, 0xf0, 0x1b, 0x1c, 0xd1, 0xd1,
  0xc9, 0x2d, 0x26, 0x21, 0x27, 0xff, 0x2c, 0xee, 0x12, 0x0e, 0x0d, 0xf0,
  0x37, 0xc6, 0x15, 0x53, 0x52, 0x00, 0xcc, 0x14, 0x18, 0x41, 0x0f, 0x04,
  0xb7, 0x0e, 0xbc, 0x36, 0xb0, 0xeb, 0xd4, 0xbe, 0xff, 0x21, 0xff, 0xab,
  0xb4, 0x41, 0x25, 0x5a, 0x51, 0xc4, 0x55, 0xe8, 0x3f, 0xb6, 0xd0, 0xb4,
  0xb8, 0xd7, 0xc1, 0x0b, 0x3e, 0x2b, 0x65, 0xf3, 0xe0, 0xbb, 0xf3, 0xc3,
  0x3e, 0xd6, 0xf6, 0x3c, 0x24, 0x21, 0xef, 0x29, 0x32, 0x43, 0x2a, 0xe5,
  0xcc, 0x18, 0xce, 0x1d, 0x4b, 0xce, 0xea, 0x1a, 0x08, 0x0e, 0xf9, 0x26,
  0x3d, 0x3d, 0x38, 0xe1, 0xda, 0xfb, 0xda, 0xf9, 0x4a, 0xbf, 0xeb, 0x30,
  0x20, 0x03, 0xcc, 0x2e, 0x3c, 0x3d, 0x3a, 0xdf, 0xc3, 0xf7, 0xc8, 0x10,
  0xfc, 0xd5, 0xd9, 0x0f, 0x10, 0x1b, 0xe8, 0xdb, 0xf5, 0x4b, 0x3d, 0x31,
  0xfe, 0xda, 0x0f, 0xf4, 0x33, 0x40, 0xd3, 0xcd, 0xc9, 0x38, 0x3e, 0x3c,
  0x38, 0xdb, 0x0b, 0xcd, 0x2a, 0x34, 0x0a, 0xf6, 0x27, 0x0a, 0x0e, 0x30,
  0x19, 0x18, 0x08, 0x25, 0x19, 0x0c, 0xfc, 0xed, 0xde, 0x1e, 0xd6, 0x24,
  0x15, 0xe8, 0x13, 0x04, 0x11, 0xdd, 0xd5, 0x09, 0x10, 0x07, 0x11, 0xff,
  0xf0, 0xf8, 0xf4, 0xf8, 0x2e, 0x49, 0xe2, 0xca, 0xcd, 0x39, 0x44, 0x3e,
  0x35, 0xcc, 0xee, 0xcf, 0x38, 0x36, 0x14, 0xfb, 0xd6, 0xe8, 0xeb, 0xd7,
  0x02, 0x19, 0xd8, 0xc4, 0xd8, 0x2b, 0x20, 0x3b, 0x23, 0xcf, 0x33, 0xf7,
  0x0c, 0xcc, 0xcd, 0x03, 0xf9, 0x08, 0xd3, 0xeb, 0x0c, 0x43, 0x50, 0x1f,
  0xf5, 0xd6, 0x08, 0xdb, 0x17, 0x4c, 0xd9, 0xc3, 0xc3, 0x40, 0x48, 0x43,
  0x34, 0xcb, 0xec, 0xc9, 0x40, 0x3b, 0x28, 0xfa, 0xcc, 0xf8, 0xf0, 0xcd,
  0xfe, 0x0d, 0xed, 0xc8, 0xd7, 0x1d, 0x13, 0x3a, 0x40, 0xde, 0x40, 0xfa,
  0x10, 0x29, 0xf7, 0x0b, 0xf6, 0x34, 0x32, 0x1d, 0x19, 0x02, 0xf7, 0xef,
  0x12, 0x25, 0x01, 0x0f, 0xb5, 0xee, 0xd7, 0xb6, 0xfa, 0x1d, 0x09, 0xaa,
  0xbb, 0x46, 0x26, 0x59, 0x52, 0xc1, 0x54, 0xd7, 0xc4, 0xe3, 0xc9, 0xc5,
  0xef, 0x26, 0xf8, 0xb5, 0xc7, 0x45, 0x2e, 0x51, 0x3f, 0xc5, 0x46, 0xe0,
  0xcf, 0x1c, 0x23, 0xe6, 0x27, 0xef, 0xf6, 0xd9, 0xd2, 0xe5, 0xe5, 0x2b,
  0x30, 0xfa, 0x31, 0x11, 0xca, 0x5a, 0x5b, 0xfd, 0x56, 0xcd, 0x1d, 0xf1,
  0xc9, 0xaa, 0xad, 0x13, 0x40, 0x38, 0x30, 0x3d, 0x38, 0xe5, 0x2e, 0x5c,
  0x5a, 0x15, 0xe0, 0x25, 0x0f, 0x35, 0xdc, 0x03, 0xc4, 0x30, 0xc2, 0x45,
  0x1a, 0xea, 0x17, 0x52, 0x57, 0x15, 0xe5, 0x06, 0xfe, 0x34, 0xfb, 0x12,
  0xd3, 0x1e, 0xde, 0x38, 0xfd, 0xff, 0xca, 0xc6, 0xcc, 0x21, 0x14, 0xfb,
  0x15, 0x1b, 0x39, 0x12, 0x22, 0xed, 0x2c, 0xdc, 0xc5, 0xe6, 0xd4, 0xc8,
  0xf8, 0x1f, 0xfd, 0xbb, 0xcc, 0x41, 0x28, 0x4c, 0x40, 0xca, 0x43, 0xe7,
  0x40, 0xb7, 0xc7, 0xce, 0xc2, 0xd8, 0xc5, 0x0b, 0x3b, 0x37, 0x66, 0xf9,
  0xda, 0xba, 0xeb, 0xc8, 0x27, 0x4c, 0xef, 0xcb, 0xd1, 0x2f, 0x40, 0x3d,
  0x2f, 0xc2, 0xfb, 0xce, 0x2d, 0x3f, 0x01, 0xf3, 0x43, 0xd5, 0x1a, 0x5d,
  0x56, 0x20, 0xdc, 0x38, 0x2c, 0x3f, 0x02, 0xe1, 0xc0, 0x39, 0xbd, 0x3e,
  0x38, 0xc7, 0xf3, 0x23, 0x1e, 0xfb, 0xcf, 0x12, 0x2e, 0x36, 0x2a, 0xff,
  0xd7, 0xec, 0xdf, 0x0b, 0xcd, 0xe1, 0xcf, 0xcb, 0xe7, 0x28, 0xee, 0xbf,
  0xd2, 0x40, 0x32, 0x47, 0x33, 0xd0, 0x3b, 0xf0, 0x4a, 0xb9, 0xa8, 0xbc,
  0x9c, 0xea, 0xca, 0x2d, 0x50, 0x26, 0x68, 0xd2, 0xe8, 0xb7, 0xf1, 0xbc,
  0x3b, 0x1f, 0xe3, 0xe3, 0xd1, 0x29, 0x25, 0x41, 0x3c, 0xf1, 0x17, 0xca,
  0x06, 0x24, 0xf4, 0xfd, 0x3d, 0x3e, 0xd4, 0xcd, 0xc3, 0x39, 0x3e, 0x42,
  0x3d, 0xe3, 0x16, 0xc9, 0x1e, 0x2c, 0x00, 0xea, 0x26, 0x3d, 0xed, 0xdb,
  0xda, 0x2f, 0x38, 0x33, 0x2b, 0xdb, 0xf1, 0xda, 0x29, 0x2c, 0x0f, 0xfc,
  0xd4, 0x33, 0x41, 0x00, 0x43, 0xde, 0xe0, 0xe4, 0xd3, 0xca, 0xca, 0x18,
  0x27, 0x17, 0x21, 0x28, 0xef, 0x3b, 0x2c, 0xfb, 0x14, 0xfb, 0x0c, 0x0c,
  0xf5, 0xca, 0xd6, 0xfb, 0x1c, 0x21, 0x10, 0x1f, 0x36, 0xf6, 0x32, 0x65,
  0x64, 0x24, 0xe6, 0x2d, 0x0e, 0x2a, 0xd8, 0xf2, 0xbd, 0x3a, 0xba, 0x4b,
  0x41, 0xd5, 0x03, 0x59, 0x5b, 0x30, 0xdf, 0x33, 0x2e, 0x41, 0x10, 0xe3,
  0xc2, 0x2b, 0xc2, 0x3a, 0xe5, 0xd5, 0xd0, 0x03, 0x05, 0x28, 0xee, 0xd0,
  0xe4, 0x45, 0x31, 0x3e, 0x0d, 0xdb, 0x21, 0xfb, 0x2c, 0xd6, 0xf8, 0x1f,
  0x1c, 0xf9, 0xdf, 0x13, 0x23, 0x28, 0x22, 0xfb, 0xe2, 0xfa, 0xe5, 0x11,
  0x2f, 0xc9, 0xfa, 0x0c, 0x0c, 0xeb, 0xc8, 0x0f, 0x25, 0x2d, 0x30, 0xfd,
  0xd6, 0xe8, 0xdd, 0xff, 0xbe, 0xf9, 0xdd, 0xc0, 0xf9, 0x17, 0x14, 0xba,
  0xc6, 0x34, 0x1d, 0x4a, 0x49, 0xcf, 0x4a, 0xe9, 0xfd, 0xcf, 0xe3, 0xd6,
  0xed, 0xe8, 0xd8, 0xe0, 0xfb, 0x31, 0x42, 0x23, 0xfe, 0xce, 0x11, 0xe5,
  0x09, 0xd0, 0xbf, 0xcf, 0xc4, 0x1c, 0xdf, 0xf0, 0x0d, 0x37, 0x4f, 0x14,
  0x02, 0xcb, 0x11, 0xdb, 0x2a, 0x4d, 0xe7, 0xcc, 0xc8, 0x41, 0x4b, 0x46,
  0x39, 0xc6, 0xe8, 0xc8, 0x3c, 0x3f, 0x22, 0xfd, 0x0c, 0xfa, 0x17, 0x06,
  0x19, 0xe6, 0xdd, 0x02, 0x00, 0xf6, 0xfe, 0x00, 0x00, 0xff, 0xfd, 0x0d,
  0x40, 0xb3, 0xff, 0x31, 0x2b, 0xe9, 0xc9, 0x0e, 0x28, 0x4d, 0x2b, 0x02,
  0xc8, 0xf1, 0xd1, 0x0a, 0x42, 0xc6, 0xd6, 0x02, 0xeb, 0xf3, 0xd1, 0x31,
  0x3d, 0x2d, 0x47, 0xd9, 0xd3, 0xe3, 0xd8, 0xf0, 0xbc, 0xf9, 0xe0, 0xc7,
  0xfd, 0x1b, 0x12, 0xb8, 0xc1, 0x37, 0x21, 0x4d, 0x4e, 0xcc, 0x4a, 0xe2,
  0x30, 0xd2, 0xe2, 0xd6, 0xd3, 0xdd, 0xd3, 0x0c, 0x2d, 0x17, 0x4e, 0xf3,
  0xe5, 0xcf, 0xea, 0xde, 0x40, 0xb9, 0xbf, 0xcf, 0xbd, 0xdd, 0xc5, 0x21,
  0x3f, 0x33, 0x5a, 0xe3, 0xda, 0xc6, 0xe3, 0xd4, 0xee, 0x34, 0x3d, 0x15,
  0x29, 0xf6, 0x19, 0xf9, 0xec, 0xdc, 0xc9, 0x10, 0x1c, 0x34, 0x0f, 0x24,
  0xb8, 0x33, 0x27, 0xc9, 0x34, 0xeb, 0x28, 0xbd, 0xbc, 0xe5, 0xdb, 0x47,
  0x4f, 0xf2, 0x4e, 0x06, 0x39, 0xb2, 0xb7, 0xb0, 0xae, 0xe0, 0xcc, 0x0b,
  0x46, 0x32, 0x65, 0xf3, 0xfa, 0xb4, 0x07, 0xbf, 0x2b, 0xd5, 0x01, 0x20,
  0x1b, 0xf6, 0xd3, 0x11, 0x1d, 0x2c, 0x20, 0xfb, 0xd6, 0xfb, 0xdc, 0x0e,
  0x32, 0xf8, 0x0c, 0x2c, 0x26, 0x0f, 0xed, 0x2e, 0x1e, 0x0f, 0x04, 0xe1,
  0xd8, 0x0f, 0xd9, 0x22, 0x3f, 0xd0, 0x04, 0x4e, 0x41, 0x0d, 0xdb, 0x30,
  0x2f, 0x40, 0x16, 0xe5, 0xc9, 0x2b, 0xca, 0x2c, 0x2b, 0xe0, 0x1c, 0x45,
  0x46, 0x1f, 0xdf, 0x14, 0x0f, 0x31, 0xf6, 0x05, 0xd5, 0x1b, 0xd3, 0x30,
  0x00, 0xd2, 0xcc, 0xbc, 0xc4, 0x00, 0x01, 0xf1, 0x18, 0x1c, 0x50, 0x08,
  0x25, 0xce, 0x34, 0xd2, 0xf0, 0xe3, 0xe7, 0xd5, 0xfb, 0xf7, 0xe5, 0xe2,
  0xf1, 0x24, 0x30, 0x27, 0x10, 0xd4, 0x1e, 0xe6, 0xd6, 0xf5, 0xe6, 0xe1,
  0x02, 0x1d, 0x01, 0xd2, 0xd7, 0x2d, 0x1e, 0x33, 0x31, 0xde, 0x2f, 0x03,
  0xff, 0x4d, 0x1b, 0xdf, 0xf6, 0x09, 0x36, 0x23, 0x0c, 0xc0, 0xd4, 0xe5,
  0x3a, 0x41, 0x20, 0x09, 0x39, 0xdc, 0x0d, 0x4c, 0x4b, 0x1e, 0xd9, 0x2f,
  0x2a, 0x34, 0x0a, 0xe0, 0xcb, 0x38, 0xca, 0x3d, 0x29, 0xf0, 0x1e, 0x3d,
  0x2a, 0x0c, 0xfa, 0x16, 0x0f, 0x2d, 0xec, 0x06, 0xd4, 0x2a, 0xcc, 0x22,
  0x30, 0xe9, 0x26, 0x56, 0x52, 0x13, 0xe6, 0x27, 0x10, 0x2e, 0xec, 0xfa,
  0xc6, 0x38, 0xc8, 0x3f, 0x29, 0x17, 0x15, 0x36, 0x1c, 0x23, 0x1c, 0x2f,
  0x18, 0x09, 0xdf, 0xe3, 0xe7, 0x35, 0xdf, 0x30, 0xca, 0xec, 0xd6, 0xc8,
  0xf4, 0x1a, 0x0a, 0xc3, 0xce, 0x3e, 0x2a, 0x43, 0x3d, 0xd7, 0x3f, 0xe4,
  0xc8, 0xee, 0xdd, 0xcb, 0xf1, 0x1a, 0x0d, 0xc2, 0xcd, 0x33, 0x29, 0x45,
  0x40, 0xca, 0x43, 0xdb, 0xfb, 0xd2, 0xcd, 0xc4, 0xd1, 0x0e, 0xe2, 0xe6,
  0x01, 0x33, 0x46, 0x21, 0x0d, 0xd1, 0x1e, 0xde, 0xca, 0xf1, 0xdc, 0xbe,
  0xf8, 0x1a, 0x04, 0xc0, 0xcd, 0x36, 0x22, 0x47, 0x40, 0xce, 0x43, 0xe3,
  0xd7, 0xe8, 0xd9, 0xd9, 0xe7, 0x28, 0xfb, 0xce, 0xde, 0x39, 0x31, 0x39,
  0x2c, 0xda, 0x32, 0xed, 0x2a, 0xd8, 0xd5, 0xdd, 0xce, 0xeb, 0xd8, 0x1c,
  0x2a, 0x13, 0x3e, 0xea, 0xed, 0xd3, 0xf2, 0xe6, 0x4a, 0xc4, 0xbe, 0xec,
  0xb5, 0xf9, 0xcb, 0x3d, 0x47, 0x29, 0x50, 0xca, 0xce, 0xd3, 0xcd, 0xd9,
  0x33, 0xc3, 0xb9, 0xb8, 0xb5, 0xe4, 0xd5, 0x08, 0x40, 0x2a, 0x5f, 0xeb,
  0xff, 0xbf, 0x0e, 0xc5, 0x17, 0x29, 0xef, 0xe3, 0xe4, 0x22, 0x25, 0x25,
  0x20, 0xed, 0xfc, 0xe6, 0x1f, 0x1c, 0x15, 0x09, 0x1c, 0x2d, 0xe9, 0xe2,
  0xe2, 0x25, 0x2a, 0x25, 0x21, 0xe4, 0xfb, 0xe4, 0x26, 0x1e, 0x0b, 0xfe,
  0x42, 0x3d, 0xd2, 0xc7, 0xc6, 0x3b, 0x3f, 0x42, 0x40, 0xdb, 0x1f, 0xc7,
  0x24, 0x3a, 0xf3, 0xe5, 0x18, 0x3b, 0xdc, 0xcd, 0xd3, 0x2f, 0x36, 0x2f,
  0x2c, 0xd8, 0xf8, 0xda, 0x30, 0x29, 0x1c, 0xf8, 0x26, 0x3d, 0xe3, 0xd4,
  0xd1, 0x2f, 0x37, 0x37, 0x30, 0xd9, 0xfa, 0xdb, 0x2a, 0x2e, 0x10, 0xf2,
  0x36, 0x39, 0xdb, 0xd5, 0xd0, 0x32, 0x39, 0x38, 0x35, 0xe3, 0x10, 0xd3,
  0x23, 0x2f, 0x02, 0xf7, 0x25, 0x37, 0xe2, 0xd2, 0xd6, 0x2e, 0x37, 0x33,
  0x2b, 0xe0, 0xfb, 0xdb, 0x2c, 0x28, 0x16, 0xf2, 0x24, 0x31, 0xeb, 0xe2,
  0xdf, 0x29, 0x2d, 0x2c, 0x28, 0xe6, 0xfe, 0xde, 0x24, 0x23, 0x10, 0x02,
  0x21, 0x42, 0xf9, 0xdd, 0xd8, 0x30, 0x3b, 0x38, 0x2c, 0xcf, 0xe0, 0xd2,
  0x2f, 0x2c, 0x18, 0x0c, 0x20, 0x2a, 0xeb, 0xe8, 0xe1, 0x25, 0x28, 0x29,
  0x27, 0xe8, 0xfe, 0xe3, 0x1b, 0x1e, 0x08, 0x03, 0x24, 0x24, 0xea, 0xee,
  0xe4, 0x24, 0x23, 0x26, 0x24, 0xf2, 0x0b, 0xe2, 0x19, 0x1d, 0x06, 0x02,
  0x26, 0x25, 0xe9, 0xee, 0xe3, 0x22, 0x25, 0x29, 0x27, 0xf3, 0x0b, 0xe3,
  0x16, 0x1d, 0x04, 0x02, 0x2f, 0x33, 0xe4, 0xdd, 0xd9, 0x28, 0x30, 0x2e,
  0x2d, 0xe1, 0x02, 0xdc, 0x28, 0x29, 0x0b, 0xf9, 0xe3, 0x31, 0x34, 0x05,
  0x33, 0xed, 0xea, 0xf6, 0xe4, 0xd5, 0xd5, 0x08, 0x1d, 0x12, 0x18, 0x22,
  0xdb, 0x43, 0x44, 0x00, 0x33, 0xe0, 0x06, 0xf6, 0xd9, 0xbf, 0xc3, 0x06,
  0x29, 0x21, 0x26, 0x2f, 0xdb, 0x38, 0x3d, 0x02, 0x3e, 0xe5, 0xfc, 0xf5,
  0xdc, 0xcd, 0xcc, 0x06, 0x26, 0x1a, 0x1c, 0x2a, 0xe3, 0x0e, 0x11, 0xf1,
  0x1a, 0x00, 0xf1, 0xe4, 0xe1, 0xfc, 0xfa, 0x1e, 0x1f, 0xee, 0x24, 0x12,
  0xd0, 0x3f, 0x3c, 0xdd, 0x22, 0xdf, 0x18, 0xe8, 0xd5, 0xc6, 0xcb, 0x14,
  0x38, 0x15, 0x35, 0x17, 0x2b, 0xd0, 0xd9, 0xfa, 0xf2, 0x08, 0xdc, 0x11,
  0x2c, 0x24, 0x3f, 0xf0, 0xf0, 0xd9, 0xf7, 0xf2, 0x2f, 0xdc, 0x19, 0x45,
  0x45, 0x0d, 0xdc, 0x1c, 0x17, 0x31, 0xf9, 0x00, 0xcf, 0x1d, 0xd0, 0x2b,
  0x20, 0xfb, 0x39, 0x5a, 0x58, 0x13, 0xe2, 0x15, 0xf1, 0x24, 0xd3, 0x0e,
  0xc7, 0x2e, 0xc5, 0x40, 0x1a, 0x07, 0x4a, 0x67, 0x69, 0x02, 0xd9, 0x18,
  0xe6, 0x17, 0xc2, 0x16, 0xbc, 0x3e, 0xbb, 0x4f, 0x25, 0xe0, 0x04, 0x2e,
  0x26, 0xf1, 0xdc, 0x0f, 0x14, 0x29, 0x16, 0x09, 0xd6, 0xf5, 0xdd, 0x15,
  0x30, 0xfc, 0x0e, 0x2d, 0x19, 0x1c, 0x08, 0x25, 0x1f, 0x20, 0xfd, 0xee,
  0xe5, 0x2f, 0xdc, 0x1e, 0x37, 0xd3, 0xfa, 0x2a, 0x24, 0xfe, 0xd3, 0x2a,
  0x31, 0x33, 0x2d, 0xe8, 0xd1, 0x0a, 0xd5, 0x0d, 0xc6, 0xf7, 0xdf, 0xce,
  0x01, 0x15, 0x0d, 0xbf, 0xc8, 0x30, 0x1d, 0x45, 0x3e, 0xd5, 0x44, 0xea,
  0xda, 0xe7, 0xd4, 0xd8, 0xe4, 0x22, 0xf1, 0xcf, 0xe2, 0x33, 0x27, 0x3b,
  0x27, 0xdb, 0x2f, 0xf1, 0xcf, 0xdf, 0xd3, 0xc7, 0xe3, 0x1a, 0xf3, 0xc2,
  0xd6, 0x38, 0x2f, 0x41, 0x36, 0xd1, 0x3d, 0xe1, 0x00, 0xd9, 0xd1, 0xd1,
  0xd6, 0x0d, 0xea, 0xec, 0x07, 0x34, 0x40, 0x1c, 0x0a, 0xd8, 0x18, 0xde,
  0x07, 0xd9, 0xd5, 0xd8, 0xdb, 0x04, 0xdd, 0xf1, 0x07, 0x2d, 0x39, 0x11,
  0xfe, 0xd2, 0x0c, 0xe3, 0x26, 0xda, 0xeb, 0xd5, 0xdb, 0xec, 0xe2, 0x0c,
  0x25, 0x0f, 0x39, 0xf8, 0xf4, 0xdc, 0xff, 0xe5, 0x27, 0xd6, 0xf0, 0xe3,
  0xe9, 0xe2, 0xd8, 0x02, 0x1c, 0x1c, 0x40, 0xfe, 0xe3, 0xd8, 0xe9, 0xec,
  0x2a, 0xcd, 0xd0, 0xc7, 0xc8, 0xe4, 0xdd, 0xfc, 0x35, 0x21, 0x5f, 0xfd,
  0xfa, 0xbf, 0x0a, 0xc7, 0x27, 0x10, 0xd3, 0xc9, 0xc9, 0x14, 0x16, 0x27,
  0x35, 0xf3, 0x2f, 0xe3, 0x12, 0x06, 0x15, 0xd6, 0x26, 0x30, 0xe1, 0xdf,
  0xdc, 0x28, 0x2e, 0x2a, 0x2a, 0xe1, 0x08, 0xe1, 0x22, 0x20, 0x0c, 0xfb,
  0x2e, 0x35, 0xdc, 0xda, 0xd4, 0x2d, 0x32, 0x32, 0x30, 0xe7, 0x17, 0xd9,
  0x1f, 0x28, 0x01, 0xeb, 0x29, 0x31, 0xe2, 0xdb, 0xdc, 0x29, 0x2d, 0x29,
  0x27, 0xe9, 0x17, 0xe3, 0x1d, 0x26, 0x02, 0xf6, 0x0d, 0x31, 0xf5, 0xe4,
  0xe2, 0x23, 0x2d, 0x27, 0x1b, 0xdf, 0xed, 0xe6, 0x26, 0x23, 0x1a, 0x01,
  0x20, 0x25, 0xed, 0xef, 0xe8, 0x1e, 0x21, 0x20, 0x21, 0xf4, 0x0a, 0xe8,
  0x17, 0x1a, 0x05, 0x01, 0xda, 0x0b, 0x1a, 0xfe, 0x2d, 0xf2, 0xdf, 0xdc,
  0xd8, 0xfa, 0xf3, 0x2a, 0x1c, 0xf3, 0x20, 0x0c, 0x23, 0xf9, 0x21, 0x45,
  0x45, 0x22, 0xf2, 0x19, 0x06, 0x23, 0xe7, 0xfe, 0xda, 0x20, 0xd9, 0x36,
  0x35, 0xe6, 0xfc, 0x1e, 0x12, 0x05, 0xe4, 0x31, 0x28, 0x18, 0x19, 0xdc,
  0xd7, 0x01, 0xd6, 0x15, 0x2e, 0xe3, 0x20, 0x54, 0x4d, 0x08, 0xd8, 0x20,
  0x14, 0x30, 0xf3, 0x02, 0xca, 0x2d, 0xc9, 0x3a, 0x29, 0xe4, 0x0f, 0x3e,
  0x40, 0x1d, 0xee, 0x1f, 0x16, 0x2c, 0xfe, 0xf8, 0xdb, 0x1a, 0xdc, 0x2e,
  0x31, 0xda, 0xf4, 0x1d, 0x14, 0xf7, 0xd8, 0x1e, 0x27, 0x27, 0x1e, 0xf0,
  0xd8, 0xf1, 0xdd, 0x12, 0xbd, 0xf7, 0xe0, 0xc6, 0xf9, 0x0a, 0x0c, 0xbb,
  0xc2, 0x39, 0x20, 0x4d, 0x4a, 0xc8, 0x4b, 0xd8, 0xe4, 0x05, 0xd6, 0xd1,
  0xe1, 0x26, 0x1a, 0xee, 0xf9, 0x20, 0x23, 0x1b, 0x30, 0xef, 0x30, 0xea,
  0xf9, 0xdf, 0xdb, 0xd8, 0xe9, 0x05, 0xea, 0xe5, 0xfc, 0x29, 0x34, 0x22,
  0x0f, 0xd9, 0x1a, 0xea, 0xd4, 0xe7, 0xdc, 0xd4, 0xee, 0x19, 0x00, 0xcc,
  0xd9, 0x35, 0x2b, 0x39, 0x31, 0xd4, 0x34, 0xe0, 0xcb, 0x0f, 0xfb, 0xd9,
  0x1b, 0x07, 0x14, 0xc8, 0xcd, 0x21, 0xf7, 0x3e, 0x3a, 0xda, 0x3b, 0xef,
  0xd2, 0xde, 0xd3, 0xce, 0xe8, 0x1c, 0xf5, 0xc9, 0xd7, 0x3d, 0x34, 0x3c,
  0x33, 0xd9, 0x38, 0xe9, 0x2d, 0xd5, 0xe8, 0xe1, 0xd9, 0xe8, 0xdd, 0x17,
  0x28, 0x1a, 0x39, 0xf2, 0xe3, 0xdb, 0xeb, 0xe2, 0x47, 0xbb, 0xc5, 0xf9,
  0xb9, 0xf0, 0xbd, 0x33, 0x40, 0x40, 0x50, 0xd5, 0xc7, 0xca, 0xcc, 0xd3,
  0x39, 0x3e, 0xd7, 0xce, 0xca, 0x37, 0x3d, 0x3d, 0x39, 0xd9, 0x0f, 0xce,
  0x29, 0x39, 0xfc, 0xe5, 0x20, 0x35, 0xea, 0xda, 0xdd, 0x27, 0x2f, 0x29,
  0x27, 0xe0, 0xfc, 0xe1, 0x26, 0x28, 0x0e, 0xfd, 0x2c, 0x39, 0xe9, 0xda,
  0xd3, 0x30, 0x36, 0x39, 0x32, 0xdb, 0xef, 0xd3, 0x29, 0x32, 0x10, 0xf3,
  0xd0, 0xd1, 0xc6, 0xc5, 0xd1, 0x2e, 0xe1, 0xc3, 0xdf, 0x47, 0x44, 0x46,
  0x37, 0xc8, 0x40, 0xda, 0x1c, 0x38, 0xf6, 0xe1, 0xe0, 0x25, 0x31, 0x2b,
  0x24, 0xdb, 0xee, 0xde, 0x2a, 0x23, 0x13, 0x07, 0xdd, 0x34, 0x37, 0x00,
  0x33, 0xe7, 0xed, 0xee, 0xdf, 0xcd, 0xce, 0x11, 0x24, 0x15, 0x23, 0x21,
  0x1b, 0x07, 0x21, 0x3d, 0x3b, 0x16, 0xfc, 0x20, 0xff, 0x18, 0xe4, 0xff,
  0xdb, 0x2f, 0xda, 0x33, 0xd3, 0x36, 0x34, 0xf0, 0x2c, 0xe1, 0x04, 0xdc,
  0xd3, 0xca, 0xd0, 0x25, 0x3b, 0x0f, 0x39, 0x23, 0xf3, 0x26, 0x29, 0x0a,
  0x26, 0xf0, 0xee, 0xff, 0xee, 0xde, 0xe0, 0xff, 0x13, 0x10, 0x0d, 0x19,
  0xe9, 0x20, 0x31, 0x16, 0x2e, 0xeb, 0xed, 0xf0, 0xe7, 0xd9, 0xd8, 0x12,
  0x12, 0x0c, 0x11, 0x26, 0xdc, 0x1e, 0x2d, 0x07, 0x32, 0xe9, 0xe6, 0xe4,
  0xe3, 0xdf, 0xd9, 0x1a, 0x19, 0x01, 0x19, 0x16, 0x21, 0xfd, 0x26, 0x43,
  0x47, 0x08, 0xeb, 0x19, 0x06, 0x1e, 0xe4, 0xfb, 0xd0, 0x2b, 0xce, 0x37,
  0x3f, 0xd9, 0xdb, 0x02, 0xcf, 0xfe, 0xdc, 0x36, 0x3b, 0x14, 0x39, 0xd9,
  0xd2, 0xfb, 0xd6, 0xef, 0x0d, 0x21, 0xf5, 0xec, 0xed, 0x1b, 0x1c, 0x19,
  0x15, 0xf2, 0xf8, 0xf1, 0x1c, 0x17, 0x0e, 0x01, 0x24, 0x29, 0xe6, 0xe3,
  0xe4, 0x22, 0x24, 0x24, 0x22, 0xee, 0x1a, 0xe8, 0x13, 0x1e, 0xf7, 0xf7,
  0x22, 0x1f, 0xef, 0xef, 0xe7, 0x1d, 0x21, 0x24, 0x23, 0xf3, 0x06, 0xe7,
  0x14, 0x1e, 0x01, 0xf5, 0xf8, 0x2c, 0x2c, 0xfd, 0x22, 0xf8, 0x0f, 0x0f,
  0xf5, 0xd9, 0xe0, 0xf3, 0x13, 0x15, 0x0b, 0x20, 0xeb, 0x23, 0x25, 0xff,
  0x28, 0xf3, 0xf1, 0xf4, 0xed, 0xe2, 0xe1, 0x0e, 0x1a, 0x0b, 0x16, 0x1d,
  0xdf, 0x3c, 0x3b, 0x00, 0x39, 0xe3, 0x1d, 0xfb, 0xe1, 0xcd, 0xcc, 0x0c,
  0x2a, 0x26, 0x23, 0x2c, 0xe2, 0x2c, 0x29, 0xe8, 0x23, 0xef, 0xff, 0xee,
  0xe7, 0xdf, 0xe0, 0x0e, 0x24, 0x0e, 0x24, 0x18, 0xe9, 0x3b, 0x38, 0x08,
  0x3a, 0xe2, 0x20, 0x07, 0xe3, 0xcf, 0xcf, 0xff, 0x25, 0x31, 0x1b, 0x29,
  0xef, 0x22, 0x27, 0x06, 0x26, 0xf0, 0xf5, 0xfa, 0xeb, 0xe0, 0xe3, 0x07,
  0x18, 0x14, 0x13, 0x1a, 0xe7, 0x2b, 0x2d, 0xf2, 0x21, 0xef, 0x04, 0xf8,
  0xe4, 0xd7, 0xdd, 0x08, 0x23, 0x12, 0x1d, 0x20, 0xe2, 0x2e, 0x2d, 0xf8,
  0x2a, 0xea, 0x14, 0xf3, 0xe5, 0xdb, 0xdc, 0x14, 0x26, 0x21, 0x22, 0x1e,
  0xed, 0x2c, 0x2c, 0xfd, 0x27, 0xee, 0xff, 0xfb, 0xe9, 0xd7, 0xdd, 0x01,
  0x1c, 0x0e, 0x18, 0x21, 0xfe, 0x3c, 0x40, 0x17, 0x3f, 0xe2, 0x1e, 0x19,
  0xf0, 0xc7, 0xca, 0xe8, 0x17, 0x2d, 0x05, 0x36, 0xe9, 0x2f, 0x2d, 0xf3,
  0x25, 0xef, 0x09, 0xfd, 0xe6, 0xd5, 0xd8, 0xfc, 0x20, 0x16, 0x19, 0x1c,
  0xe8, 0x35, 0x32, 0xf1, 0x2d, 0xe8, 0x12, 0xf9, 0xe2, 0xd4, 0xd4, 0x0d,
  0x25, 0x1d, 0x20, 0x20, 0xf0, 0x23, 0x22, 0xf5, 0x22, 0xf8, 0xfd, 0x01,
  0xed, 0xe1, 0xe6, 0xfe, 0x18, 0x07, 0x15, 0x1a, 0xdc, 0x2e, 0x38, 0xfc,
  0x38, 0xe3, 0xfd, 0xee, 0xdf, 0xd4, 0xd3, 0x18, 0x26, 0x1c, 0x25, 0x26,
  0xf1, 0x2a, 0x26, 0xfd, 0x1d, 0xf0, 0x19, 0xff, 0xee, 0xdd, 0xde, 0x03,
  0x1c, 0x15, 0x19, 0x18, 0xed, 0x1d, 0x24, 0xfb, 0x25, 0xef, 0xf6, 0xf7,
  0xee, 0xe2, 0xe6, 0x0b, 0x17, 0x14, 0x12, 0x17, 0xed, 0x27, 0x29, 0xfd,
  0x22, 0xed, 0x09, 0x02, 0xea, 0xdc, 0xe0, 0xfc, 0x1c, 0x1d, 0x18, 0x1b,
  0xeb, 0x26, 0x24, 0xfa, 0x21, 0xee, 0x0c, 0x01, 0xeb, 0xe0, 0xe2, 0xff,
  0x1e, 0x1c, 0x1b, 0x16, 0x16, 0x01, 0x2d, 0x3f, 0x40, 0x11, 0xed, 0x10,
  0xf6, 0x1b, 0xdc, 0x0b, 0xdb, 0x22, 0xdc, 0x31, 0x23, 0x03, 0x1d, 0x3b,
  0x3c, 0x0d, 0xf7, 0x27, 0x05, 0x16, 0xee, 0xf4, 0xda, 0x2d, 0xdb, 0x31,
  0x16, 0xf5, 0x26, 0x3f, 0x3f, 0x0b, 0xe4, 0x09, 0xf4, 0x1c, 0xe2, 0x0e,
  0xd8, 0x1c, 0xd7, 0x30, 0x27, 0x1e, 0x36, 0x51, 0x54, 0xfa, 0xe9, 0x30,
  0xfb, 0x06, 0xd7, 0xf7, 0xc6, 0x40, 0xc2, 0x44, 0x19, 0xfd, 0x28, 0x44,
  0x3f, 0x10, 0xea, 0x14, 0xf5, 0x1a, 0xe1, 0x0c, 0xd6, 0x27, 0xd6, 0x32,
  0x2a, 0xcd, 0x2d, 0x4c, 0x49, 0xed, 0xd0, 0xfc, 0xfe, 0x40, 0xef, 0x20,
  0xc4, 0x19, 0xc4, 0x2f, 0x31, 0xe9, 0x18, 0x47, 0x42, 0x12, 0xea, 0x2d,
  0x23, 0x29, 0xfa, 0xe2, 0xd2, 0x31, 0xd2, 0x2c, 0x26, 0xe9, 0x11, 0x37,
  0x30, 0x09, 0xef, 0x19, 0x16, 0x29, 0x00, 0xfb, 0xdc, 0x1d, 0xdd, 0x25,
  0x27, 0xe9, 0x10, 0x35, 0x35, 0x07, 0xef, 0x26, 0x1e, 0x25, 0x03, 0xf0,
  0xde, 0x26, 0xdb, 0x20, 0x28, 0xe8, 0x12, 0x36, 0x34, 0x06, 0xec, 0x24,
  0x1e, 0x24, 0x01, 0xef, 0xdf, 0x23, 0xdc, 0x1f, 0x32, 0xd8, 0x02, 0x39,
  0x31, 0x09, 0xdd, 0x29, 0x2b, 0x34, 0x20, 0xe6, 0xd6, 0x20, 0xd7, 0x21,
  0x1f, 0xf2, 0x16, 0x3b, 0x39, 0x1c, 0xf7, 0x15, 0x07, 0x21, 0xf3, 0x02,
  0xe1, 0x1e, 0xe1, 0x2d, 0xd3, 0x16, 0x04, 0xe1, 0x1f, 0x0d, 0x24, 0xd3,
  0xd5, 0x18, 0xf7, 0x39, 0x36, 0xe6, 0x33, 0xf5, 0xeb, 0xe8, 0xe2, 0xe8,
  0xf5, 0x19, 0xfe, 0xde, 0xed, 0x2e, 0x26, 0x2b, 0x17, 0xe4, 0x21, 0xed,
  0xd4, 0xe7, 0xd8, 0xcf, 0xe5, 0x0b, 0xfc, 0xcc, 0xd8, 0x37, 0x26, 0x3a,
  0x32, 0xd4, 0x36, 0xe1, 0xd5, 0xe8, 0xd8, 0xd0, 0xe2, 0x0c, 0xf9, 0xcc,
  0xdb, 0x37, 0x28, 0x3a, 0x31, 0xd5, 0x36, 0xe0, 0xd2, 0xed, 0xe2, 0xd3,
  0xef, 0x10, 0x09, 0xce, 0xdb, 0x32, 0x22, 0x3c, 0x34, 0xd8, 0x37, 0xdc,
  0xe2, 0xf4, 0xe5, 0xe7, 0xf9, 0x1a, 0x04, 0xdd, 0xe3, 0x23, 0x1f, 0x2b,
  0x22, 0xe6, 0x26, 0xfa, 0xe8, 0xf4, 0xee, 0xf0, 0x00, 0x15, 0xfa, 0xe4,
  0xe9, 0x1d, 0x1c, 0x22, 0x1d, 0xee, 0x21, 0xfa, 0xfe, 0xea, 0xe6, 0xe9,
  0xf1, 0x18, 0x02, 0xf3, 0xf9, 0x22, 0x24, 0x14, 0x12, 0xef, 0x16, 0x02,
  0xe3, 0xeb, 0xe4, 0xe2, 0xf2, 0x17, 0xf7, 0xdb, 0xe8, 0x24, 0x1d, 0x2e,
  0x21, 0xe7, 0x28, 0xf7, 0x2f, 0xdd, 0xdf, 0xea, 0xd8, 0xf4, 0xe6, 0x21,
  0x2d, 0x10, 0x34, 0xe3, 0xea, 0xe9, 0xea, 0xe8, 0x1d, 0xd9, 0xe3, 0xef,
  0xe4, 0xe8, 0xe0, 0x0b, 0x19, 0x1c, 0x2f, 0xfe, 0xed, 0xdd, 0xf1, 0xf2,
  0x1e, 0xdb, 0xe2, 0xf0, 0xe3, 0xeb, 0xde, 0x0f, 0x1b, 0x19, 0x2c, 0xfc,
  0xeb, 0xdd, 0xf2, 0xf4, 0x2c, 0xe3, 0xe9, 0xeb, 0xe1, 0xf4, 0xe5, 0x1e,
  0x2a, 0x11, 0x31, 0xea, 0xea, 0xe5, 0xeb, 0xed, 0x15, 0xdc, 0xd8, 0xcb,
  0xc7, 0xfb, 0xfb, 0x07, 0x2b, 0x01, 0x3f, 0xf0, 0x14, 0xd9, 0x19, 0xdd,
  0x36, 0xd0, 0xd1, 0xdc, 0xcd, 0xe7, 0xd7, 0x1a, 0x35, 0x2d, 0x4a, 0xe9,
  0xe7, 0xd3, 0xeb, 0xd6, 0x38, 0xce, 0xca, 0xda, 0xc5, 0xea, 0xd8, 0x20,
  0x39, 0x29, 0x4d, 0xe5, 0xe6, 0xd1, 0xef, 0xd1, 0x28, 0xdc, 0xd3, 0xec,
  0xce, 0x00, 0xe8, 0x1d, 0x2b, 0x1e, 0x37, 0xe5, 0xf4, 0xe0, 0xf4, 0xdf,
  0x28, 0xdb, 0xea, 0xec, 0xe9, 0xeb, 0xe0, 0x02, 0x22, 0x26, 0x37, 0x00,
  0xe6, 0xdc, 0xef, 0xe9, 0x27, 0xda, 0xe7, 0xe8, 0xe8, 0xec, 0xde, 0x04,
  0x24, 0x21, 0x37, 0xfd, 0xe8, 0xde, 0xf0, 0xeb, 0x16, 0xdf, 0xe9, 0xde,
  0xe3, 0xec, 0xe5, 0xff, 0x16, 0x1d, 0x37, 0x0d, 0xf6, 0xe3, 0x02, 0xe1,
  0x1f, 0xc7, 0xd2, 0xcb, 0xcc, 0xe1, 0xd6, 0xf5, 0x2e, 0x2f, 0x4e, 0x0e,
  0x00, 0xc4, 0x0f, 0xd0, 0x1e, 0xda, 0xe9, 0xe7, 0xf5, 0xe9, 0xe1, 0xfb,
  0x15, 0x24, 0x38, 0x05, 0xea, 0xe1, 0xf3, 0xed, 0x14, 0xe4, 0xfb, 0xf0,
  0xf1, 0xec, 0xe5, 0xfb, 0x12, 0x12, 0x31, 0x0b, 0xef, 0xe6, 0xf7, 0xea,
  0x26, 0xdd, 0xea, 0xdd, 0xe3, 0xee, 0xe2, 0x08, 0x21, 0x15, 0x35, 0xfc,
  0xee, 0xe2, 0xf9, 0xed, 0x24, 0xd0, 0xd6, 0xc8, 0xcc, 0xee, 0xf2, 0x03,
  0x32, 0x20, 0x45, 0xea, 0x11, 0xd0, 0x20, 0xd9, 0x27, 0xca, 0xd6, 0xc7,
  0xcb, 0xeb, 0xf1, 0x02, 0x32, 0x23, 0x46, 0xe8, 0x10, 0xca, 0x1f, 0xd8,
  0x24, 0xd9, 0xe6, 0xef, 0xe7, 0xe9, 0xdc, 0x07, 0x23, 0x23, 0x3e, 0x05,
  0xe9, 0xda, 0xf3, 0xe0, 0x30, 0xd9, 0xd6, 0xed, 0xcb, 0xf9, 0xd9, 0x23,
  0x2d, 0x1e, 0x37, 0xe5, 0xe2, 0xdc, 0xe7, 0xe5, 0x15, 0x21, 0xf2, 0xed,
  0xed, 0x19, 0x1e, 0x1a, 0x18, 0xf5, 0x05, 0xf0, 0x1a, 0x17, 0x12, 0x06,
  0x26, 0x27, 0xe5, 0xe0, 0xe0, 0x23, 0x27, 0x28, 0x2a, 0xea, 0x13, 0xe4,
  0x1c, 0x25, 0x00, 0xeb, 0x21, 0x2d, 0xf7, 0xe6, 0xe7, 0x23, 0x28, 0x27,
  0x21, 0xeb, 0xfa, 0xe3, 0x1d, 0x23, 0x04, 0x03, 0x2a, 0x2f, 0xee, 0xe9,
  0xe0, 0x28, 0x2a, 0x2b, 0x2a, 0xe6, 0x0d, 0xde, 0x11, 0x29, 0xf5, 0xfb,
  0x10, 0x1f, 0xf8, 0xf0, 0xed, 0x1a, 0x1e, 0x1c, 0x17, 0xf0, 0xfc, 0xf2,
  0x18, 0x16, 0x0f, 0x04, 0x2a, 0x33, 0xe7, 0xe0, 0xdc, 0x25, 0x2c, 0x2e,
  0x2c, 0xe2, 0x05, 0xdd, 0x20, 0x26, 0x09, 0xf3, 0x26, 0x1c, 0xe4, 0xe6,
  0xdc, 0x21, 0x25, 0x2a, 0x26, 0x09, 0x24, 0xe2, 0xfa, 0x13, 0xf3, 0xf9,
  0x0f, 0x26, 0xf3, 0xe7, 0xe3, 0x22, 0x23, 0x24, 0x1d, 0xe9, 0xf7, 0xe8,
  0x21, 0x1e, 0x18, 0xfe, 0x23, 0x28, 0xec, 0xe7, 0xe6, 0x22, 0x27, 0x25,
  0x22, 0xef, 0x0c, 0xe6, 0x0b, 0x21, 0xf7, 0x01, 0x19, 0x1a, 0xf2, 0xf0,
  0xf2, 0x17, 0x18, 0x19, 0x18, 0xfa, 0x0d, 0xf3, 0x14, 0x12, 0xff, 0xff,
  0x2b, 0x35, 0xe5, 0xd8, 0xd6, 0x2b, 0x34, 0x33, 0x2f, 0xe2, 0xff, 0xd7,
  0x29, 0x30, 0x0d, 0xec, 0x07, 0x2b, 0xf5, 0xe3, 0xe4, 0x24, 0x28, 0x27,
  0x20, 0xdf, 0xed, 0xe2, 0x28, 0x27, 0x1e, 0xfa, 0x08, 0x33, 0xe9, 0xd8,
  0xd9, 0x26, 0x2e, 0x27, 0x20, 0xd7, 0xf6, 0xe4, 0x2c, 0x25, 0x24, 0xf0,
  0x16, 0x20, 0xf3, 0xea, 0xec, 0x1b, 0x1c, 0x1b, 0x17, 0xf0, 0x04, 0xf1,
  0x18, 0x13, 0x07, 0x01, 0xe8, 0x1a, 0x30, 0x12, 0x2d, 0xe9, 0xe9, 0xf6,
  0xe5, 0xe3, 0xda, 0x08, 0x0e, 0x02, 0x13, 0x27, 0xe2, 0x2c, 0x38, 0x0e,
  0x38, 0xe2, 0xed, 0xf3, 0xdf, 0xd7, 0xd7, 0x13, 0x1b, 0x19, 0x17, 0x25,
  0xec, 0x2f, 0x33, 0x10, 0x2e, 0xeb, 0xf7, 0xfd, 0xe9, 0xd7, 0xd7, 0x05,
  0x16, 0x1e, 0x10, 0x25, 0xe1, 0x30, 0x37, 0x11, 0x38, 0xdf, 0x08, 0xff,
  0xe3, 0xd4, 0xd0, 0xfe, 0x21, 0x1c, 0x1c, 0x2b, 0xe2, 0x30, 0x38, 0x11,
  0x36, 0xe0, 0x06, 0x00, 0xe1, 0xd5, 0xd0, 0xff, 0x24, 0x1d, 0x1b, 0x2a,
  0xe2, 0x33, 0x37, 0x10, 0x35, 0xe2, 0x06, 0xff, 0xe1, 0xd4, 0xd0, 0xff,
  0x21, 0x1b, 0x1b, 0x2c, 0xe2, 0x2a, 0x27, 0xe9, 0x20, 0xf1, 0x01, 0xf1,
  0xe6, 0xdf, 0xdf, 0x0d, 0x22, 0x0b, 0x22, 0x18, 0xe3, 0x29, 0x28, 0xe9,
  0x21, 0xef, 0x01, 0xef, 0xe7, 0xdf, 0xe2, 0x10, 0x22, 0x0a, 0x24, 0x18,
  0xe6, 0x2b, 0x31, 0x0d, 0x2f, 0xec, 0xf6, 0xf3, 0xe4, 0xd9, 0xd7, 0x0f,
  0x1d, 0x18, 0x19, 0x1f, 0xe4, 0x2c, 0x30, 0x0b, 0x2e, 0xea, 0xf4, 0xf4,
  0xe5, 0xd7, 0xd8, 0x0e, 0x20, 0x19, 0x1b, 0x1f, 0xdb, 0x2b, 0x35, 0x09,
  0x38, 0xe3, 0xff, 0xee, 0xdc, 0xd6, 0xd6, 0x17, 0x22, 0x17, 0x1e, 0x2b,
  0xf0, 0x24, 0x24, 0x03, 0x27, 0xf0, 0xf6, 0xf6, 0xed, 0xe2, 0xe4, 0x09,
  0x17, 0x14, 0x14, 0x1c, 0xea, 0x2a, 0x2b, 0xf3, 0x1f, 0xef, 0x05, 0xf9,
  0xe7, 0xd9, 0xde, 0x0a, 0x21, 0x0f, 0x1e, 0x1e, 0xdb, 0x1d, 0x2e, 0x05,
  0x32, 0xe5, 0xe5, 0xe0, 0xdd, 0xe0, 0xda, 0x20, 0x1d, 0x08, 0x24, 0x20,
  0xdb, 0x1d, 0x2e, 0x05, 0x32, 0xe5, 0xe7, 0xe3, 0xde, 0xdf, 0xda, 0x22,
  0x1d, 0x06, 0x24, 0x20, 0xf1, 0x25, 0x27, 0x0a, 0x26, 0xf2, 0xf1, 0x00,
  0xed, 0xe2, 0xe3, 0x01, 0x12, 0x0e, 0x0f, 0x18, 0xe2, 0x2d, 0x33, 0x08,
  0x32, 0xe9, 0x01, 0xf8, 0xe2, 0xd6, 0xd8, 0x0d, 0x1e, 0x1a, 0x18, 0x22,
  0xf8, 0x1f, 0x2c, 0x09, 0x27, 0xf2, 0xf1, 0x04, 0xef, 0xe3, 0xe0, 0xfd,
  0x0a, 0x13, 0x05, 0x1d, 0xf7, 0x1f, 0x28, 0x06, 0x20, 0xf6, 0xf8, 0x06,
  0xf2, 0xe1, 0xe4, 0xfd, 0x0b, 0x13, 0x09, 0x18, 0xe4, 0x31, 0x31, 0xfb,
  0x2d, 0xea, 0x1a, 0x03, 0xe4, 0xd3, 0xd4, 0xf7, 0x25, 0x1d, 0x20, 0x2a,
  0xec, 0x2a, 0x2d, 0xfe, 0x25, 0xee, 0xfc, 0xfb, 0xeb, 0xd8, 0xde, 0x01,
  0x1a, 0x0f, 0x18, 0x21, 0xd7, 0x31, 0x2d, 0xf0, 0x26, 0xe7, 0x07, 0xe3,
  0xdc, 0xd4, 0xd5, 0x20, 0x36, 0x0c, 0x31, 0x1c, 0xdc, 0x2f, 0x2f, 0xed,
  0x21, 0xec, 0x0d, 0xf4, 0xe1, 0xd7, 0xdc, 0x0c, 0x29, 0x15, 0x26, 0x1c,
  0xde, 0x2c, 0x2e, 0xec, 0x1f, 0xec, 0x0c, 0xf7, 0xe3, 0xd6, 0xda, 0x0a,
  0x2a, 0x16, 0x27, 0x1c, 0xe1, 0x2d, 0x2c, 0xeb, 0x21, 0xee, 0x0b, 0xf2,
  0xe6, 0xdc, 0xdc, 0x0b, 0x26, 0x11, 0x22, 0x15, 0xe7, 0x28, 0x2a, 0xef,
  0x23, 0xf3, 0x08, 0xf6, 0xe7, 0xdd, 0xdf, 0x09, 0x1f, 0x0c, 0x1b, 0x18,
  0xe2, 0x28, 0x2a, 0xeb, 0x1f, 0xf1, 0x05, 0xf9, 0xe8, 0xdc, 0xdd, 0x06,
  0x23, 0x0b, 0x1e, 0x1c, 0xdd, 0x3b, 0x3f, 0x13, 0x40, 0xdc, 0x0c, 0xf3,
  0xda, 0xd0, 0xc9, 0x10, 0x23, 0x2c, 0x1d, 0x2f, 0xdb, 0x38, 0x3e, 0x12,
  0x3f, 0xdc, 0x0d, 0xf2, 0xdb, 0xcd, 0xcc, 0x10, 0x23, 0x29, 0x1e, 0x32,
  0xe8, 0x2b, 0x2e, 0xf3, 0x22, 0xed, 0x08, 0xfc, 0xe8, 0xd7, 0xda, 0x00,
  0x1e, 0x14, 0x1b, 0x1d, 0xea, 0x31, 0x30, 0xf2, 0x2a, 0xe7, 0x10, 0xf9,
  0xe5, 0xd8, 0xd8, 0x0a, 0x24, 0x1b, 0x20, 0x22, 0xe9, 0x32, 0x31, 0xf1,
  0x2b, 0xe7, 0x11, 0xf7, 0xe6, 0xd7, 0xd7, 0x0c, 0x24, 0x1c, 0x1e, 0x22,
  0xe5, 0x34, 0x2e, 0xf7, 0x1f, 0xeb, 0x16, 0xff, 0xe8, 0xd1, 0xd6, 0xff,
  0x24, 0x19, 0x20, 0x23, 0xda, 0x3a, 0x31, 0xe4, 0x1e, 0xe7, 0x20, 0xef,
  0xde, 0xcf, 0xd5, 0x10, 0x2d, 0x1d, 0x2a, 0x1c, 0xe3, 0x34, 0x2e, 0xed,
  0x26, 0xeb, 0x0a, 0xf0, 0xe4, 0xd6, 0xdb, 0x0e, 0x29, 0x13, 0x24, 0x1b,
  0xf1, 0x24, 0x21, 0xf9, 0x22, 0xf8, 0xff, 0xfe, 0xf0, 0xe3, 0xe9, 0xff,
  0x18, 0x09, 0x13, 0x18, 0xf0, 0x23, 0x23, 0xf9, 0x23, 0xf7, 0x00, 0xfd,
  0xf1, 0xe2, 0xe7, 0x00, 0x17, 0x08, 0x13, 0x1a, 0xef, 0x22, 0x21, 0xf9,
  0x22, 0xf7, 0xfd, 0xfe, 0xf1, 0xe4, 0xe8, 0xfd, 0x18, 0x09, 0x14, 0x1a,
  0xf3, 0x2b, 0x27, 0xfb, 0x1e, 0xf1, 0x1b, 0xff, 0xed, 0xde, 0xdf, 0x05,
  0x1f, 0x17, 0x18, 0x1b, 0xee, 0x1d, 0x23, 0xfa, 0x24, 0xf1, 0xf7, 0xf9,
  0xf0, 0xe5, 0xe7, 0x0a, 0x15, 0x11, 0x11, 0x19, 0xf0, 0x1b, 0x23, 0xfa,
  0x22, 0xf1, 0xf4, 0xf7, 0xee, 0xe4, 0xe7, 0x0b, 0x15, 0x14, 0x10, 0x17,
  0xd9, 0x34, 0x32, 0xdc, 0x11, 0xe5, 0x18, 0xe9, 0xdb, 0xd2, 0xd6, 0x19,
  0x32, 0x0b, 0x2c, 0x10, 0xea, 0x31, 0x30, 0xf4, 0x24, 0xf5, 0x10, 0x00,
  0xe7, 0xd0, 0xd4, 0x00, 0x20, 0x15, 0x1f, 0x23, 0xe6, 0x34, 0x33, 0xf3,
  0x2a, 0xee, 0x16, 0xfe, 0xe5, 0xcf, 0xd3, 0xff, 0x23, 0x1d, 0x21, 0x27,
  0xf1, 0x22, 0x23, 0xfa, 0x20, 0xf1, 0x0c, 0x04, 0xef, 0xe3, 0xe2, 0xfe,
  0x1b, 0x19, 0x18, 0x16, 0xd1, 0x3e, 0x3a, 0xdf, 0x30, 0xda, 0x22, 0xde,
  0xd4, 0xca, 0xcd, 0x25, 0x3b, 0x23, 0x33, 0x28, 0xe0, 0x2f, 0x3b, 0x16,
  0x3c, 0xde, 0x02, 0xfa, 0xdc, 0xd7, 0xcf, 0x0c, 0x1a, 0x1f, 0x12, 0x2d,
  0xe2, 0x30, 0x37, 0x0d, 0x36, 0xe5, 0x03, 0xf3, 0xe6, 0xd7, 0xd5, 0x10,
  0x23, 0x21, 0x1b, 0x25, 0xe0, 0x32, 0x34, 0x0d, 0x36, 0xe4, 0x04, 0xf3,
  0xe3, 0xd7, 0xd4, 0x10, 0x22, 0x20, 0x1e, 0x25, 0x1e, 0xed, 0x0d, 0x30,
  0x2e, 0x09, 0xec, 0x14, 0x08, 0x21, 0xf6, 0x02, 0xe0, 0x15, 0xe1, 0x21,
  0x1c, 0xfa, 0x13, 0x2a, 0x2c, 0x16, 0xfa, 0x12, 0x05, 0x1b, 0xf5, 0x01,
  0xe7, 0x0c, 0xe9, 0x22, 0x15, 0x02, 0x2a, 0x3d, 0x3e, 0x13, 0xef, 0x10,
  0xf4, 0x1d, 0xdc, 0x0e, 0xdc, 0x1f, 0xdc, 0x2e, 0x3a, 0xd4, 0x13, 0x4c,
  0x49, 0x15, 0xd1, 0x2f, 0x2a, 0x3b, 0x0a, 0xe3, 0xc5, 0x36, 0xc4, 0x3c,
  0x01, 0x16, 0x32, 0x4a, 0x4a, 0x08, 0xe0, 0x02, 0xe8, 0xff, 0xd5, 0x1f,
  0xd0, 0x32, 0xca, 0x3c, 0x1e, 0xfa, 0x2e, 0x42, 0x41, 0x05, 0xea, 0x17,
  0xff, 0x1e, 0xe8, 0x05, 0xd3, 0x2f, 0xd1, 0x34, 0x1d, 0xf3, 0x1e, 0x3e,
  0x3e, 0x09, 0xef, 0x13, 0x05, 0x1c, 0xec, 0x07, 0xdf, 0x24, 0xdf, 0x28,
  0x21, 0x03, 0x1d, 0x38, 0x39, 0x0f, 0xf8, 0x25, 0x04, 0x14, 0xef, 0xf6,
  0xdd, 0x2a, 0xdb, 0x2f, 0x12, 0x0a, 0x20, 0x43, 0x43, 0x0b, 0xf3, 0x19,
  0xfd, 0x11, 0xe2, 0x07, 0xda, 0x2b, 0xdb, 0x36, 0x1c, 0xff, 0x21, 0x32,
  0x35, 0x14, 0xfa, 0x1d, 0x02, 0x11, 0xe8, 0x01, 0xe6, 0x1c, 0xe4, 0x28,
  0x1b, 0xff, 0x1d, 0x37, 0x35, 0x1b, 0xf6, 0x12, 0x06, 0x17, 0xef, 0x01,
  0xe3, 0x21, 0xe6, 0x2e, 0x17, 0x00, 0x17, 0x31, 0x32, 0x16, 0xf5, 0x17,
  0x07, 0x13, 0xf3, 0xf8, 0xe5, 0x24, 0xe5, 0x2a, 0x17, 0xfe, 0x17, 0x30,
  0x32, 0x14, 0xf5, 0x19, 0x08, 0x14, 0xf2, 0xfa, 0xe4, 0x26, 0xe2, 0x2b,
  0x1c, 0xf5, 0x14, 0x31, 0x2f, 0x15, 0xf6, 0x17, 0x0a, 0x1e, 0xef, 0xfa,
  0xe5, 0x10, 0xe5, 0x25, 0x1f, 0xf5, 0x15, 0x30, 0x31, 0x17, 0xf6, 0x18,
  0x0a, 0x1f, 0xf1, 0xfb, 0xe4, 0x12, 0xe7, 0x27, 0x38, 0xd2, 0x10, 0x46,
  0x44, 0x08, 0xd6, 0x2e, 0x2f, 0x3b, 0x1b, 0xe6, 0xcc, 0x1e, 0xcd, 0x27,
  0x0f, 0x04, 0x2d, 0x41, 0x42, 0x0f, 0xe7, 0x08, 0xf5, 0x17, 0xe2, 0x15,
  0xd7, 0x28, 0xd5, 0x31, 0x25, 0xf5, 0x05, 0x2f, 0x31, 0x1c, 0xfd, 0x1f,
  0x17, 0x21, 0x01, 0xf5, 0xe2, 0x19, 0xe4, 0x27, 0x21, 0xf1, 0x18, 0x39,
  0x37, 0x09, 0xf0, 0x17, 0x0c, 0x21, 0xfa, 0x01, 0xdb, 0x20, 0xdd, 0x28,
  0x2f, 0xe8, 0x27, 0x45, 0x42, 0x04, 0xe5, 0x2d, 0x24, 0x2e, 0xf3, 0xe8,
  0xd0, 0x37, 0xcd, 0x30, 0x08, 0x12, 0x33, 0x4c, 0x4e, 0xfc, 0xe0, 0x0b,
  0xed, 0x0a, 0xd4, 0x1c, 0xd0, 0x38, 0xce, 0x3c, 0x11, 0xf6, 0x0f, 0x2c,
  0x2c, 0x1d, 0xf2, 0x0a, 0xff, 0x1f, 0xf1, 0x0a, 0xea, 0x0e, 0xe9, 0x22,
  0x31, 0xea, 0x19, 0x43, 0x42, 0x12, 0xed, 0x2e, 0x22, 0x25, 0xfb, 0xe2,
  0xd4, 0x32, 0xd2, 0x2e, 0x1c, 0x00, 0x1d, 0x42, 0x43, 0x08, 0xe4, 0x1b,
  0x03, 0x19, 0xee, 0x02, 0xd4, 0x2e, 0xd3, 0x37, 0x24, 0xe9, 0x13, 0x35,
  0x32, 0x0c, 0xed, 0x1e, 0x1a, 0x2c, 0xfc, 0xfa, 0xdd, 0x1d, 0xdd, 0x1f,
  0x1b, 0x00, 0x29, 0x47, 0x48, 0x08, 0xe6, 0x1a, 0x01, 0x16, 0xe5, 0x09,
  0xd3, 0x36, 0xd1, 0x3b, 0x18, 0x02, 0x28, 0x44, 0x45, 0x06, 0xe8, 0x14,
  0xfe, 0x15, 0xe6, 0x0e, 0xd5, 0x2e, 0xd3, 0x37, 0x1a, 0x05, 0x21, 0x43,
  0x3f, 0x08, 0xf4, 0x18, 0x00, 0x12, 0xe8, 0x06, 0xd7, 0x2b, 0xd5, 0x37,
  0x01, 0x04, 0x33, 0x4a, 0x4b, 0xfa, 0xe8, 0xff, 0xe4, 0x0f, 0xd8, 0x25,
  0xcf, 0x2b, 0xd0, 0x36, 0xff, 0x06, 0x34, 0x49, 0x4a, 0xfc, 0xe7, 0xff,
  0xe4, 0x0f, 0xd6, 0x25, 0xcf, 0x2c, 0xd1, 0x37, 0x35, 0xdc, 0xf8, 0x3e,
  0x41, 0x24, 0xe6, 0x32, 0x30, 0x33, 0x1e, 0xde, 0xd5, 0x2c, 0xd5, 0x24,
  0x1c, 0xf3, 0x16, 0x38, 0x37, 0x1b, 0xf6, 0x11, 0x07, 0x1f, 0xf4, 0xff,
  0xe1, 0x1b, 0xdf, 0x2b, 0x1c, 0xf4, 0x17, 0x2b, 0x2c, 0x0b, 0xf4, 0x0f,
  0x0d, 0x1d, 0xf9, 0xfe, 0xe9, 0x10, 0xec, 0x1f, 0xe1, 0xf6, 0xf0, 0xe5,
  0xff, 0x17, 0x06, 0xdf, 0xe7, 0x1f, 0x12, 0x2e, 0x27, 0xea, 0x26, 0xf8,
  0xda, 0xe7, 0xe2, 0xd8, 0xf2, 0x19, 0xfe, 0xd2, 0xde, 0x2f, 0x23, 0x39,
  0x2d, 0xde, 0x30, 0xeb, 0xf1, 0xf0, 0xea, 0xee, 0xf7, 0x15, 0xfc, 0xe6,
  0xf2, 0x22, 0x1e, 0x21, 0x17, 0xec, 0x1c, 0xf8, 0xde, 0xf7, 0xe6, 0xd3,
  0xfb, 0x15, 0x0a, 0xda, 0xe2, 0x24, 0x19, 0x33, 0x2d, 0xe0, 0x2e, 0xea,
  0xea, 0xfb, 0xf6, 0xf1, 0x07, 0x15, 0x00, 0xe8, 0xec, 0x16, 0x12, 0x20,
  0x1a, 0xf2, 0x1f, 0xfd, 0xdd, 0xeb, 0xe2, 0xd5, 0xf1, 0x10, 0xfc, 0xd6,
  0xe3, 0x2b, 0x23, 0x30, 0x2d, 0xdb, 0x31, 0xe3, 0xdd, 0xea, 0xe2, 0xd3,
  0xf1, 0x10, 0xf9, 0xd6, 0xe3, 0x2b, 0x23, 0x30, 0x2d, 0xdb, 0x2f, 0xe1,
  0xec, 0xe5, 0xdf, 0xe5, 0xef, 0x1c, 0xf4, 0xdd, 0xeb, 0x2d, 0x29, 0x29,
  0x14, 0xe6, 0x20, 0xfa, 0xdc, 0xea, 0xe1, 0xde, 0xf3, 0x1b, 0x01, 0xd7,
  0xe3, 0x30, 0x25, 0x31, 0x2a, 0xe6, 0x2c, 0xeb, 0xd5, 0xf1, 0xe5, 0xd3,
  0xf3, 0x0e, 0x08, 0xcf, 0xdd, 0x31, 0x22, 0x3b, 0x32, 0xd9, 0x37, 0xdf,
  0xd9, 0x0b, 0xf4, 0xdc, 0x0e, 0x0d, 0x15, 0xd9, 0xde, 0x1a, 0x02, 0x2f,
  0x2e, 0xe7, 0x2e, 0xf9, 0xe0, 0xf6, 0xf3, 0xf3, 0x09, 0x18, 0x0d, 0xe1,
  0xe3, 0x23, 0x14, 0x27, 0x28, 0xe7, 0x26, 0xfb, 0xe6, 0xf7, 0xee, 0xe6,
  0x04, 0x13, 0xfd, 0xe1, 0xe7, 0x25, 0x1a, 0x23, 0x20, 0xeb, 0x21, 0xff,
  0xe1, 0xf6, 0xed, 0xe0, 0xfa, 0x17, 0x02, 0xe0, 0xe4, 0x28, 0x18, 0x29,
  0x24, 0xec, 0x26, 0xf4, 0xe7, 0xf7, 0xee, 0xf3, 0x00, 0x12, 0xfd, 0xe5,
  0xea, 0x1a, 0x19, 0x1f, 0x1b, 0xec, 0x1e, 0xfd, 0xfb, 0xf0, 0xe9, 0xea,
  0xf4, 0x17, 0x00, 0xf1, 0xfb, 0x21, 0x22, 0x17, 0x11, 0xf2, 0x16, 0x01,
  0xde, 0xe1, 0xdb, 0xdb, 0xea, 0x14, 0xef, 0xd7, 0xe3, 0x31, 0x30, 0x2f,
  0x26, 0xde, 0x2b, 0xed, 0xe0, 0xe5, 0xdc, 0xdc, 0xea, 0x17, 0xf1, 0xd8,
  0xe3, 0x2a, 0x2d, 0x2f, 0x22, 0xe3, 0x28, 0xf2, 0xd2, 0xf5, 0xea, 0xd6,
  0xf6, 0x0f, 0x0c, 0xd1, 0xdb, 0x22, 0x1f, 0x38, 0x33, 0xd6, 0x35, 0xe2,
  0xf9, 0xeb, 0xe7, 0xe5, 0xee, 0x1b, 0xef, 0xe6, 0xf6, 0x29, 0x23, 0x1e,
  0x10, 0xe8, 0x19, 0xf9, 0xdc, 0x04, 0xee, 0xe6, 0xfc, 0x13, 0x0c, 0xd8,
  0xe0, 0x17, 0x0a, 0x2f, 0x2a, 0xe5, 0x2d, 0xf3, 0xdc, 0x05, 0xf1, 0xe6,
  0xf9, 0x12, 0x0e, 0xd7, 0xe0, 0x1a, 0x0a, 0x30, 0x2b, 0xe8, 0x2c, 0xf4,
  0xe5, 0x03, 0xf7, 0xef, 0x03, 0x12, 0x0c, 0xe4, 0xe4, 0x16, 0x0a, 0x22,
  0x24, 0xed, 0x23, 0x02, 0xe4, 0x06, 0xf7, 0xf0, 0x06, 0x12, 0x0c, 0xe4,
  0xe5, 0x15, 0x0a, 0x22, 0x20, 0xed, 0x20, 0x03, 0xe4, 0xf3, 0xe7, 0xe7,
  0xfd, 0x0c, 0xfb, 0xdf, 0xe6, 0x21, 0x16, 0x2a, 0x1f, 0xe5, 0x22, 0xf4,
  0xe4, 0xf6, 0xe6, 0xe7, 0xfc, 0x0c, 0xfa, 0xdf, 0xe7, 0x22, 0x15, 0x2b,
  0x1f, 0xe4, 0x24, 0xf4, 0xd5, 0xfe, 0xf1, 0xd9, 0x0a, 0x0b, 0x0d, 0xd1,
  0xd8, 0x24, 0x0c, 0x35, 0x31, 0xe0, 0x32, 0xf5, 0xe7, 0xfc, 0xed, 0xe8,
  0xf3, 0x15, 0x09, 0xe6, 0xe8, 0x20, 0x1b, 0x23, 0x23, 0xeb, 0x23, 0xf8,
  0xe7, 0xe8, 0xe1, 0xe0, 0xe5, 0x26, 0xf8, 0xdb, 0xed, 0x2f, 0x2f, 0x2d,
  0x20, 0xe5, 0x26, 0xed, 0x1a, 0xe8, 0xf6, 0xe6, 0xeb, 0xf6, 0xee, 0x09,
  0x17, 0x06, 0x26, 0xfd, 0xfa, 0xe9, 0x03, 0xf0, 0x2e, 0xe1, 0xde, 0xec,
  0xd7, 0xf6, 0xe8, 0x22, 0x2b, 0x0e, 0x34, 0xe1, 0xec, 0xe9, 0xec, 0xe7,
  0x11, 0xdf, 0xf7, 0xec, 0xef, 0xec, 0xe9, 0xfa, 0x10, 0x1c, 0x29, 0x0d,
  0xf2, 0xe6, 0xff, 0xed, 0x23, 0xe2, 0xf2, 0xf0, 0xf0, 0xef, 0xe6, 0x0c,
  0x1c, 0x12, 0x29, 0xf3, 0xeb, 0xe7, 0xed, 0xfa, 0x2e, 0xe1, 0xd9, 0xdf,
  0xd2, 0xfc, 0xe4, 0x28, 0x2e, 0x12, 0x37, 0xdf, 0xeb, 0xe5, 0xed, 0xe9,
  0x2c, 0xe5, 0xe7, 0xee, 0xe1, 0xf7, 0xe8, 0x1f, 0x28, 0x0f, 0x2d, 0xe7,
  0xe9, 0xe7, 0xec, 0xec, 0x22, 0xeb, 0xe1, 0xd8, 0xd6, 0xf1, 0xf5, 0x15,
  0x29, 0x00, 0x35, 0xec, 0x07, 0xdf, 0x0f, 0xe4, 0x3e, 0xd7, 0xd2, 0xfc,
  0xc8, 0x04, 0xdf, 0x39, 0x3e, 0x18, 0x3f, 0xd5, 0xd5, 0xfc, 0xd6, 0xe2,
  0x3e, 0xd5, 0xd2, 0xf9, 0xc7, 0x02, 0xe0, 0x3c, 0x3e, 0x18, 0x3f, 0xd7,
  0xd6, 0xfc, 0xd8, 0xe5, 0x39, 0xd2, 0xd8, 0xf5, 0xd0, 0xfb, 0xd3, 0x28,
  0x33, 0x27, 0x3d, 0xe1, 0xdd, 0xe4, 0xdf, 0xe3, 0x0f, 0xe2, 0xd8, 0xd4,
  0xcf, 0xf9, 0xf2, 0x00, 0x25, 0x11, 0x3d, 0xf9, 0x10, 0xd7, 0x15, 0xdd,
  0x0e, 0xe0, 0xd8, 0xd4, 0xd1, 0xfa, 0xf5, 0x01, 0x25, 0x0e, 0x3c, 0xf9,
  0x11, 0xd7, 0x14, 0xdd, 0x2d, 0xd8, 0xcd, 0xe9, 0xc9, 0x06, 0xe7, 0x21,
  0x30, 0x23, 0x3d, 0xdf, 0xf2, 0xd8, 0xf2, 0xdc, 0x19, 0xe0, 0xf2, 0xef,
  0xf3, 0xf1, 0xe7, 0xfb, 0x17, 0x22, 0x39, 0x0f, 0xee, 0xdf, 0xff, 0xe2,
  0x33, 0xdd, 0xde, 0x09, 0xdc, 0xf6, 0xdf, 0x2a, 0x2e, 0x22, 0x30, 0xe4,
  0xdc, 0xea, 0xdd, 0xea, 0x24, 0xdc, 0xe8, 0xee, 0xea, 0xee, 0xe1, 0x06,
  0x22, 0x25, 0x34, 0xfd, 0xea, 0xdf, 0xf0, 0xeb, 0x1d, 0xd5, 0xd9, 0xd0,
  0xd3, 0xe9, 0xde, 0xef, 0x2d, 0x25, 0x3d, 0x0e, 0x05, 0xd5, 0x12, 0xd6,
  0x1d, 0xd5, 0xd9, 0xd1, 0xd1, 0xe8, 0xdf, 0xee, 0x2b, 0x25, 0x3d, 0x0c,
  0x05, 0xd2, 0x11, 0xd4, 0x2e, 0xc3, 0xbe, 0xc7, 0xbd, 0xfd, 0xdc, 0x06,
  0x3e, 0x2f, 0x59, 0xf6, 0x08, 0xbd, 0x13, 0xc5, 0x36, 0xd2, 0xc6, 0xc9,
  0xbf, 0xfa, 0xe2, 0x1b, 0x3d, 0x20, 0x46, 0xe2, 0xff, 0xcc, 0x08, 0xd2,
  0x36, 0xd0, 0xd4, 0xe9, 0xcf, 0xee, 0xd9, 0x22, 0x35, 0x22, 0x43, 0xe5,
  0xe2, 0xe4, 0xe5, 0xdd, 0x1b, 0xdc, 0xec, 0xeb, 0xf7, 0xec, 0xdf, 0xf7,
  0x13, 0x24, 0x34, 0x07, 0xec, 0xe2, 0xf5, 0xef, 0x1f, 0xdb, 0xe1, 0xe8,
  0xe6, 0xf1, 0xe2, 0x01, 0x20, 0x23, 0x2f, 0x03, 0xf1, 0xdb, 0x01, 0xed,
  0x20, 0xdc, 0xe3, 0xe9, 0xe4, 0xf0, 0xe2, 0x02, 0x1e, 0x23, 0x31, 0x03,
  0xf1, 0xdb, 0x01, 0xec, 0x3b, 0xdc, 0xdd, 0x05, 0xd1, 0x00, 0xdd, 0x33,
  0x36, 0x15, 0x35, 0xdb, 0xd7, 0x00, 0xd8, 0xf0, 0x24, 0xde, 0xeb, 0xe0,
  0xe2, 0xec, 0xe1, 0x09, 0x1e, 0x15, 0x33, 0xfc, 0xee, 0xe4, 0xf9, 0xee,
  0x25, 0xde, 0xe9, 0xdf, 0xe2, 0xee, 0xe4, 0x09, 0x1f, 0x15, 0x32, 0xfb,
  0xee, 0xe4, 0xf8, 0xee, 0x38, 0xc8, 0xcd, 0x06, 0xdc, 0xde, 0xcd, 0x1d,
  0x33, 0x31, 0x46, 0xea, 0xd7, 0xdc, 0xda, 0xdf, 0x38, 0xc9, 0xce, 0x06,
  0xdd, 0xde, 0xcd, 0x1d, 0x33, 0x30, 0x45, 0xe7, 0xd7, 0xdd, 0xd9, 0xde,
  0x17, 0xd3, 0xe2, 0xde, 0xe6, 0xe3, 0xda, 0xf4, 0x1c, 0x27, 0x48, 0x13,
  0xef, 0xd1, 0x02, 0xd9, 0x27, 0xd4, 0xde, 0xda, 0xd9, 0xf0, 0xe0, 0x0d,
  0x28, 0x24, 0x3d, 0xf7, 0xf5, 0xde, 0xfd, 0xe0, 0x25, 0xd5, 0xdd, 0xd8,
  0xd9, 0xef, 0xdf, 0x0b, 0x2a, 0x25, 0x3d, 0xf6, 0xf4, 0xde, 0xfe, 0xe0,
  0x1b, 0xdd, 0x00, 0x19, 0x0f, 0xe5, 0xdd, 0xfd, 0x0c, 0x28, 0x31, 0x13,
  0xe4, 0xe4, 0xe3, 0xf4, 0x30, 0xc7, 0xc6, 0xbb, 0xba, 0xf1, 0xf0, 0x0d,
  0x3e, 0x26, 0x50, 0xdf, 0x15, 0xbf, 0x1a, 0xcd, 0x35, 0xca, 0xcf, 0x00,
  0xcb, 0xf4, 0xca, 0x22, 0x2f, 0x36, 0x3e, 0xe7, 0xd7, 0xd9, 0xda, 0xdf,
  0x32, 0xd0, 0xcb, 0xdc, 0xce, 0xeb, 0xd9, 0x14, 0x35, 0x28, 0x47, 0xed,
  0xe6, 0xd0, 0xef, 0xd9, 0x25, 0xda, 0xe9, 0xf0, 0xea, 0xea, 0xdf, 0x07,
  0x22, 0x25, 0x39, 0x09, 0xe9, 0xdb, 0xf5, 0xe1, 0x23, 0xd9, 0xe9, 0xf0,
  0xe9, 0xea, 0xdd, 0x07, 0x23, 0x23, 0x39, 0x09, 0xeb, 0xda, 0xf5, 0xdf,
  0x27, 0xd8, 0xd1, 0xd3, 0xca, 0xf9, 0xe8, 0x16, 0x2f, 0x13, 0x3d, 0xed,
  0xfb, 0xdb, 0x00, 0xdc, 0x2f, 0xdb, 0xd9, 0xf1, 0xd0, 0xfb, 0xdb, 0x22,
  0x2b, 0x1e, 0x38, 0xe7, 0xe3, 0xe0, 0xe7, 0xe7, 0x2e, 0xda, 0xda, 0xee,
  0xcf, 0xfc, 0xdd, 0x22, 0x2c, 0x1e, 0x35, 0xe6, 0xe3, 0xe0, 0xe8, 0xe5,
  0x1f, 0xd0, 0xd8, 0xcf, 0xcf, 0xee, 0xe0, 0xfd, 0x26, 0x23, 0x43, 0xfd,
  0x00, 0xd6, 0x0b, 0xd9, 0x1c, 0xe4, 0xef, 0xe1, 0xe2, 0xf3, 0xeb, 0x0d,
  0x1e, 0x11, 0x2c, 0xf7, 0xf7, 0xe7, 0xfe, 0xed, 0x1d, 0xe3, 0xf0, 0xe3,
  0xe5, 0xf3, 0xed, 0x0a, 0x1d, 0x0f, 0x2a, 0xf7, 0xf8, 0xe9, 0xfe, 0xec,
  0x23, 0xf0, 0xe2, 0xe1, 0xdb, 0x00, 0xf5, 0x1d, 0x24, 0x00, 0x2d, 0xe5,
  0xfa, 0xeb, 0xfe, 0xea, 0x33, 0xce, 0xd3, 0xf5, 0xd9, 0xe1, 0xd4, 0x0e,
  0x30, 0x32, 0x44, 0xfa, 0xd7, 0xd3, 0xe0, 0xd7, 0x15, 0x1f, 0xf2, 0xed,
  0xf0, 0x18, 0x1b, 0x1a, 0x17, 0xf8, 0x04, 0xf0, 0x19, 0x16, 0x10, 0x07,
  0x3c, 0x3a, 0xd1, 0xc7, 0xc9, 0x38, 0x3c, 0x40, 0x3e, 0xe2, 0x24, 0xcd,
  0x1b, 0x38, 0xef, 0xdc, 0x1f, 0x20, 0xe9, 0xeb, 0xe9, 0x1f, 0x22, 0x22,
  0x20, 0xf3, 0x13, 0xeb, 0x10, 0x19, 0xfe, 0xff, 0x1f, 0x22, 0xef, 0xe9,
  0xe5, 0x1e, 0x26, 0x22, 0x20, 0xf1, 0x0a, 0xe8, 0x17, 0x1d, 0x07, 0xf6,
  0x1f, 0x22, 0xed, 0xe9, 0xe7, 0x1e, 0x24, 0x23, 0x21, 0xf1, 0x0c, 0xe7,
  0x18, 0x1f, 0x06, 0xf6, 0x1f, 0x22, 0xec, 0xe9, 0xe5, 0x1e, 0x24, 0x23,
  0x20, 0xf0, 0x09, 0xe6, 0x17, 0x1f, 0x05, 0xf9, 0x27, 0x26, 0xe7, 0xe2,
  0xe1, 0x22, 0x26, 0x25, 0x26, 0xec, 0x13, 0xe5, 0x1b, 0x22, 0xff, 0xeb,
  0x28, 0x28, 0xe5, 0xe2, 0xe2, 0x24, 0x25, 0x27, 0x26, 0xed, 0x12, 0xe5,
  0x1b, 0x22, 0x01, 0xec, 0x26, 0x28, 0xe5, 0xe2, 0xe0, 0x21, 0x24, 0x28,
  0x27, 0xec, 0x14, 0xe3, 0x1b, 0x25, 0x00, 0xed, 0x1a, 0x27, 0xfd, 0xeb,
  0xed, 0x1a, 0x22, 0x1d, 0x1b, 0xe8, 0xf8, 0xee, 0x1f, 0x1b, 0x04, 0xfc,
  0x18, 0x2a, 0xfd, 0xeb, 0xea, 0x1d, 0x25, 0x1e, 0x1b, 0xe7, 0xf6, 0xec,
  0x23, 0x1d, 0x05, 0xfc, 0x08, 0x2c, 0xe4, 0xdb, 0xde, 0x25, 0x2b, 0x26,
  0x22, 0xe6, 0xfe, 0xe3, 0x27, 0x22, 0x1b, 0xf5, 0x16, 0x24, 0xf1, 0xe9,
  0xe9, 0x1c, 0x21, 0x1e, 0x1b, 0xe4, 0xf5, 0xef, 0x1f, 0x17, 0x16, 0xfc,
  0x16, 0x23, 0xf1, 0xea, 0xea, 0x1c, 0x21, 0x20, 0x1c, 0xe4, 0xf3, 0xee,
  0x1e, 0x15, 0x14, 0xfe, 0x1f, 0x2d, 0xf6, 0xe9, 0xe7, 0x21, 0x29, 0x24,
  0x20, 0xed, 0xf9, 0xe7, 0x1c, 0x23, 0x04, 0x00, 0x2a, 0x2f, 0xe4, 0xdd,
  0xda, 0x28, 0x2d, 0x2d, 0x2b, 0xe7, 0x0e, 0xdf, 0x21, 0x28, 0x05, 0xf0,
  0x29, 0x31, 0xe4, 0xdb, 0xdb, 0x29, 0x2f, 0x2c, 0x2a, 0xe6, 0x0d, 0xdf,
  0x22, 0x27, 0x06, 0xf2, 0x33, 0x34, 0xda, 0xd3, 0xd1, 0x30, 0x36, 0x35,
  0x33, 0xdc, 0x1f, 0xd4, 0x25, 0x34, 0xfb, 0xdf, 0x33, 0x32, 0xdd, 0xd3,
  0xd4, 0x2f, 0x36, 0x35, 0x32, 0xdd, 0x1d, 0xd4, 0x25, 0x33, 0xf8, 0xe1,
  0x28, 0x2d, 0xf1, 0xed, 0xe1, 0x24, 0x2a, 0x2b, 0x2b, 0xe7, 0x0a, 0xe1,
  0x11, 0x27, 0xf5, 0xfd, 0x1d, 0x1c, 0xf0, 0xee, 0xea, 0x19, 0x1e, 0x20,
  0x1a, 0xf0, 0x0a, 0xec, 0x12, 0x13, 0x07, 0xff, 0x1f, 0x21, 0xef, 0xec,
  0xe7, 0x1b, 0x1f, 0x22, 0x22, 0xf2, 0x0b, 0xe8, 0x15, 0x14, 0x02, 0xff,
  0x0f, 0x1e, 0xf7, 0xf0, 0xed, 0x19, 0x1d, 0x19, 0x18, 0xf1, 0xfc, 0xf1,
  0x18, 0x15, 0x12, 0x03, 0x0f, 0x1f, 0xf8, 0xf2, 0xee, 0x18, 0x1c, 0x1b,
  0x17, 0xf3, 0xfc, 0xf3, 0x18, 0x17, 0x12, 0x05, 0x1a, 0x24, 0xf3, 0xea,
  0xee, 0x19, 0x20, 0x1e, 0x1b, 0xeb, 0xf5, 0xee, 0x1c, 0x19, 0x0a, 0x03,
  0x29, 0x31, 0xe8, 0xe0, 0xde, 0x25, 0x2c, 0x2c, 0x2a, 0xe3, 0x06, 0xde,
  0x20, 0x26, 0x0b, 0xf2, 0x11, 0x1a, 0xf9, 0xf4, 0xf4, 0x16, 0x16, 0x15,
  0x15, 0xf6, 0x01, 0xf5, 0x14, 0x12, 0x0a, 0x03, 0x11, 0x1a, 0xfb, 0xf6,
  0xf1, 0x14, 0x18, 0x17, 0x14, 0xf5, 0x00, 0xf3, 0x12, 0x11, 0x0a, 0x06,
  0x23, 0x27, 0xeb, 0xe5, 0xe4, 0x22, 0x23, 0x22, 0x23, 0xf3, 0x1b, 0xe8,
  0x0e, 0x1f, 0xf8, 0xf7, 0x1f, 0x37, 0x06, 0xe8, 0xe6, 0x23, 0x32, 0x2c,
  0x20, 0xd9, 0xe5, 0xda, 0x26, 0x28, 0x12, 0x0e, 0x1d, 0x34, 0x04, 0xe6,
  0xe7, 0x25, 0x32, 0x2e, 0x21, 0xd9, 0xe4, 0xdd, 0x24, 0x29, 0x15, 0x0e,
  0x21, 0x1e, 0xef, 0xed, 0xe4, 0x20, 0x23, 0x25, 0x25, 0xf0, 0x05, 0xe5,
  0x15, 0x21, 0x04, 0xf1, 0x22, 0x1e, 0xed, 0xeb, 0xe3, 0x20, 0x23, 0x25,
  0x23, 0xef, 0x05, 0xe6, 0x15, 0x23, 0x02, 0xf3, 0x25, 0x23, 0xe0, 0xe2,
  0xdd, 0x24, 0x29, 0x29, 0x2a, 0xf2, 0x23, 0xe1, 0x16, 0x1c, 0xff, 0xed,
  0x25, 0x23, 0xdf, 0xe2, 0xdb, 0x25, 0x2a, 0x28, 0x28, 0xf3, 0x21, 0xe2,
  0x16, 0x1e, 0x01, 0xed, 0x1f, 0x1e, 0xeb, 0xf6, 0xea, 0x1e, 0x21, 0x21,
  0x1f, 0xf8, 0x0a, 0xe9, 0x11, 0x19, 0x03, 0x03, 0x22, 0x2c, 0xee, 0xe0,
  0xe2, 0x21, 0x26, 0x25, 0x20, 0xe2, 0xf9, 0xe3, 0x26, 0x24, 0x0e, 0xf8,
  0x23, 0x2d, 0xee, 0xe2, 0xe4, 0x21, 0x26, 0x26, 0x21, 0xe2, 0xfa, 0xe3,
  0x25, 0x21, 0x0e, 0xf7, 0x27, 0x1a, 0xe5, 0xe8, 0xdc, 0x1f, 0x27, 0x28,
  0x26, 0x0a, 0x20, 0xe4, 0xfc, 0x13, 0xf4, 0xf7, 0x27, 0x1c, 0xe6, 0xe5,
  0xdc, 0x22, 0x27, 0x29, 0x23, 0x0b, 0x22, 0xe1, 0xfb, 0x14, 0xf5, 0xf8,
  0x20, 0x24, 0xed, 0xef, 0xe8, 0x1d, 0x23, 0x24, 0x1e, 0xeb, 0x01, 0xe6,
  0x19, 0x1b, 0x06, 0x02, 0x20, 0x25, 0xee, 0xec, 0xe8, 0x1d, 0x23, 0x23,
  0x20, 0xed, 0x01, 0xe6, 0x18, 0x1b, 0x08, 0x03, 0x03, 0x27, 0xfc, 0xee,
  0xec, 0x1e, 0x22, 0x23, 0x14, 0xe5, 0xed, 0xed, 0x1f, 0x1e, 0x14, 0x01,
  0x04, 0x28, 0xfd, 0xec, 0xe9, 0x1f, 0x26, 0x21, 0x15, 0xe8, 0xed, 0xf0,
  0x1f, 0x1c, 0x13, 0x00, 0x18, 0x2e, 0xe9, 0xdc, 0xde, 0x26, 0x2d, 0x26,
  0x23, 0xe9, 0xf9, 0xe5, 0x26, 0x25, 0x15, 0xf4, 0x21, 0x3b, 0xf7, 0xdd,
  0xdb, 0x2d, 0x38, 0x34, 0x2d, 0xd8, 0xe0, 0xd6, 0x2c, 0x31, 0x1e, 0xf9,
  0x22, 0x3c, 0xf8, 0xde, 0xdc, 0x2d, 0x35, 0x36, 0x2c, 0xd8, 0xe3, 0xd8,
  0x2d, 0x31, 0x1e, 0xf9, 0x13, 0x22, 0xf6, 0xf0, 0xec, 0x1a, 0x1f, 0x1f,
  0x1a, 0xf6, 0xfb, 0xf0, 0x17, 0x18, 0x10, 0x08, 0x10, 0x26, 0xfb, 0xf0,
  0xef, 0x1c, 0x23, 0x21, 0x1a, 0xf2, 0xf3, 0xeb, 0x18, 0x1b, 0x14, 0x0a,
  0x21, 0x28, 0xf7, 0xee, 0xe9, 0x1e, 0x25, 0x21, 0x20, 0xe6, 0xff, 0xe6,
  0x13, 0x1e, 0xf7, 0xfe, 0x21, 0x29, 0xf7, 0xf1, 0xec, 0x1d, 0x23, 0x22,
  0x1f, 0xe7, 0x02, 0xe7, 0x14, 0x20, 0xf9, 0xfe, 0x22, 0x2a, 0xf6, 0xef,
  0xe9, 0x1d, 0x24, 0x22, 0x1e, 0xe9, 0x01, 0xe8, 0x15, 0x1e, 0xf7, 0xfc,
  0x22, 0x2a, 0xf6, 0xf0, 0xea, 0x1f, 0x26, 0x22, 0x1f, 0xe6, 0xff, 0xe8,
  0x12, 0x20, 0xf7, 0xfc, 0x21, 0x26, 0xed, 0xea, 0xe5, 0x1f, 0x25, 0x22,
  0x1f, 0xef, 0x0d, 0xe5, 0x0b, 0x22, 0xf9, 0xff, 0x22, 0x27, 0xef, 0xe8,
  0xe6, 0x1e, 0x25, 0x22, 0x20, 0xf1, 0x0b, 0xe6, 0x0a, 0x20, 0xf7, 0xff,
  0x23, 0x27, 0xec, 0xe7, 0xe7, 0x21, 0x26, 0x22, 0x20, 0xef, 0x0d, 0xe8,
  0x0c, 0x20, 0xf9, 0x00, 0x1a, 0x25, 0xec, 0xe6, 0xe8, 0x1f, 0x20, 0x1f,
  0x1f, 0xef, 0x0a, 0xeb, 0x1b, 0x1f, 0x09, 0xfd, 0x1b, 0x25, 0xee, 0xe8,
  0xe9, 0x1f, 0x22, 0x1e, 0x1d, 0xef, 0x09, 0xed, 0x1b, 0x1f, 0x0a, 0xfd,
  0x17, 0x1a, 0xf0, 0xf1, 0xf2, 0x18, 0x1b, 0x18, 0x17, 0xfa, 0x0e, 0xf1,
  0x12, 0x12, 0x00, 0x00, 0x19, 0x1b, 0xf3, 0xef, 0xf0, 0x16, 0x19, 0x19,
  0x16, 0xfa, 0x0c, 0xf2, 0x12, 0x13, 0xff, 0x01, 0x18, 0x19, 0xf3, 0xef,
  0xef, 0x19, 0x1a, 0x18, 0x16, 0xfa, 0x0e, 0xf3, 0x12, 0x12, 0x01, 0xff,
  0x21, 0x1f, 0xe8, 0xe7, 0xe5, 0x21, 0x23, 0x23, 0x21, 0xf4, 0x0b, 0xe9,
  0x14, 0x1e, 0x03, 0xf8, 0x21, 0x21, 0xea, 0xe9, 0xe5, 0x20, 0x21, 0x22,
  0x21, 0xf7, 0x0a, 0xe6, 0x13, 0x20, 0x03, 0xf8, 0x2c, 0x2d, 0xec, 0xe4,
  0xdd, 0x27, 0x2d, 0x2e, 0x2c, 0xe5, 0xfe, 0xdc, 0x1a, 0x27, 0xfc, 0xf5,
  0x2a, 0x35, 0xe6, 0xd9, 0xd9, 0x2b, 0x34, 0x30, 0x2e, 0xe2, 0x03, 0xd8,
  0x27, 0x2e, 0x0c, 0xec, 0x2b, 0x37, 0xe6, 0xd7, 0xd8, 0x2b, 0x33, 0x30,
  0x2e, 0xe1, 0x03, 0xd9, 0x25, 0x2e, 0x0c, 0xee, 0x07, 0x29, 0xf6, 0xe5,
  0xe7, 0x23, 0x28, 0x26, 0x1e, 0xe1, 0xed, 0xe6, 0x26, 0x24, 0x1c, 0xff,
  0x0a, 0x39, 0xf9, 0xda, 0xdc, 0x31, 0x36, 0x35, 0x2a, 0xd5, 0xdb, 0xd6,
  0x33, 0x34, 0x26, 0xfe, 0x10, 0x2a, 0xfb, 0xe6, 0xe7, 0x22, 0x29, 0x25,
  0x1d, 0xe0, 0xea, 0xe5, 0x25, 0x24, 0x19, 0x02, 0x15, 0x16, 0xf7, 0xf5,
  0xf3, 0x14, 0x16, 0x16, 0x16, 0xf9, 0x06, 0xf4, 0x13, 0x12, 0x08, 0x04,
  0x16, 0x1f, 0xf3, 0xed, 0xef, 0x1c, 0x1c, 0x1a, 0x19, 0xf2, 0x05, 0xef,
  0x18, 0x14, 0x09, 0x00, 0x1d, 0x18, 0xf3, 0xf4, 0xee, 0x18, 0x1a, 0x1c,
  0x1a, 0x01, 0x13, 0xf0, 0x0b, 0x15, 0xfc, 0x01, 0xfa, 0x28, 0x28, 0xfd,
  0x1f, 0xf8, 0x0f, 0x11, 0xf4, 0xdb, 0xe1, 0xf1, 0x15, 0x15, 0x0a, 0x1e,
  0xef, 0x1f, 0x21, 0xfd, 0x21, 0xf8, 0xf7, 0xfb, 0xf0, 0xe8, 0xe6, 0x0c,
  0x17, 0x0b, 0x16, 0x17, 0xeb, 0x35, 0x35, 0x0a, 0x36, 0xe8, 0x20, 0x05,
  0xe9, 0xd2, 0xd2, 0x02, 0x22, 0x2b, 0x15, 0x27, 0xea, 0x32, 0x31, 0x02,
  0x30, 0xe9, 0x1d, 0x07, 0xea, 0xd6, 0xd7, 0xff, 0x24, 0x28, 0x1a, 0x23,
  0xdf, 0x28, 0x32, 0x0e, 0x34, 0xe5, 0xff, 0xf0, 0xdf, 0xda, 0xd6, 0x12,
  0x1b, 0x17, 0x19, 0x27, 0xdf, 0x28, 0x32, 0x0a, 0x33, 0xe5, 0xfe, 0xf3,
  0xe0, 0xdd, 0xd8, 0x11, 0x1d, 0x17, 0x19, 0x26, 0xdf, 0x36, 0x36, 0x03,
  0x36, 0xdc, 0x17, 0xf1, 0xdc, 0xd2, 0xd2, 0x1a, 0x2a, 0x29, 0x26, 0x20,
  0xed, 0x29, 0x29, 0xf6, 0x1f, 0xf3, 0x02, 0xfa, 0xec, 0xdd, 0xe0, 0x06,
  0x1c, 0x0c, 0x16, 0x1e, 0xec, 0x2a, 0x2e, 0xfc, 0x21, 0xee, 0x0e, 0x05,
  0xef, 0xde, 0xdb, 0xfb, 0x1d, 0x22, 0x18, 0x20, 0xe6, 0x2a, 0x2f, 0x08,
  0x2f, 0xea, 0xfa, 0xf7, 0xe3, 0xda, 0xdc, 0x0a, 0x1e, 0x19, 0x15, 0x21,
  0xf6, 0x22, 0x23, 0xf8, 0x18, 0xf7, 0x03, 0x03, 0xf4, 0xe6, 0xe9, 0xfe,
  0x13, 0x0f, 0x0f, 0x12, 0xf5, 0x21, 0x21, 0xf9, 0x16, 0xf6, 0x0a, 0x01,
  0xf4, 0xe6, 0xe8, 0x06, 0x16, 0x14, 0x12, 0x0f, 0xe5, 0x27, 0x29, 0xeb,
  0x1a, 0xf1, 0x04, 0xf9, 0xea, 0xdf, 0xe3, 0x03, 0x21, 0x09, 0x1e, 0x1b,
  0xe6, 0x27, 0x29, 0xf1, 0x1e, 0xf3, 0x02, 0xf8, 0xea, 0xde, 0xde, 0x03,
  0x1e, 0x0a, 0x16, 0x18, 0xec, 0x29, 0x2c, 0xf4, 0x26, 0xeb, 0x0a, 0xf7,
  0xe7, 0xdc, 0xe0, 0x0c, 0x20, 0x1a, 0x1a, 0x1e, 0xea, 0x25, 0x2c, 0x0c,
  0x2c, 0xec, 0xec, 0xfe, 0xe6, 0xdf, 0xe1, 0x02, 0x14, 0x12, 0x0c, 0x20,
  0xef, 0x22, 0x2b, 0x08, 0x29, 0xee, 0xf3, 0x00, 0xeb, 0xe0, 0xe2, 0x04,
  0x13, 0x13, 0x0c, 0x1e, 0xec, 0x1d, 0x2c, 0x11, 0x2b, 0xef, 0xf2, 0xf6,
  0xea, 0xe0, 0xdb, 0x12, 0x0d, 0x0c, 0x0c, 0x25, 0xe5, 0x1d, 0x28, 0x03,
  0x2b, 0xed, 0xeb, 0xeb, 0xe8, 0xe5, 0xe1, 0x17, 0x18, 0x01, 0x19, 0x15,
  0xe2, 0x32, 0x2f, 0xec, 0x25, 0xec, 0x1b, 0xfc, 0xe2, 0xd4, 0xd8, 0x05,
  0x27, 0x1d, 0x24, 0x22, 0xe3, 0x2d, 0x33, 0x01, 0x31, 0xe6, 0xfe, 0xf4,
  0xe2, 0xd6, 0xd6, 0x13, 0x23, 0x1b, 0x20, 0x21, 0xf7, 0x25, 0x22, 0xfc,
  0x18, 0xf4, 0x14, 0x03, 0xf4, 0xe6, 0xe4, 0xfe, 0x18, 0x11, 0x11, 0x17,
  0xe0, 0x42, 0x43, 0x07, 0x3d, 0xdb, 0x2d, 0x09, 0xdc, 0xc5, 0xc4, 0xf9,
  0x33, 0x2e, 0x1f, 0x33, 0xd1, 0x35, 0x30, 0xd1, 0x26, 0xe2, 0x07, 0xd7,
  0xd7, 0xd2, 0xd6, 0x2e, 0x38, 0x05, 0x32, 0x14, 0xd1, 0x3f, 0x39, 0xe1,
  0x2e, 0xda, 0x23, 0xde, 0xd3, 0xcc, 0xcd, 0x24, 0x37, 0x23, 0x33, 0x26,
  0xf0, 0x20, 0x29, 0x09, 0x26, 0xf0, 0xf4, 0xfd, 0xef, 0xe3, 0xe2, 0x07,
  0x13, 0x13, 0x10, 0x21, 0xe6, 0x28, 0x33, 0x0f, 0x35, 0xe4, 0x03, 0xff,
  0xe2, 0xdc, 0xd7, 0x06, 0x19, 0x19, 0x10, 0x26, 0xe5, 0x2e, 0x34, 0x10,
  0x32, 0xe7, 0x05, 0xf4, 0xe8, 0xdc, 0xd6, 0x12, 0x1f, 0x20, 0x19, 0x24,
  0x2f, 0xda, 0x18, 0x3b, 0x3b, 0xfe, 0xdd, 0x11, 0x18, 0x36, 0x08, 0x06,
  0xd4, 0x0c, 0xd2, 0x1d, 0x1a, 0xf4, 0x22, 0x39, 0x3a, 0x0c, 0xe7, 0x0b,
  0xf9, 0x1b, 0xe8, 0x0b, 0xdf, 0x19, 0xdf, 0x2e, 0x28, 0xee, 0x15, 0x32,
  0x30, 0x0f, 0xee, 0x26, 0x1c, 0x22, 0xfe, 0xee, 0xdf, 0x27, 0xe0, 0x22,
  0x17, 0xff, 0x19, 0x34, 0x36, 0x17, 0xf8, 0x12, 0x04, 0x15, 0xef, 0x02,
  0xe4, 0x20, 0xe4, 0x2b, 0x17, 0xfe, 0x25, 0x3e, 0x3c, 0x0f, 0xef, 0x0e,
  0xf7, 0x19, 0xe5, 0x0c, 0xdb, 0x25, 0xdd, 0x2d, 0x22, 0xe9, 0x26, 0x3e,
  0x3e, 0xfb, 0xe2, 0x13, 0x08, 0x28, 0xec, 0x09, 0xd3, 0x2c, 0xd1, 0x30,
  0x28, 0xd6, 0x24, 0x3d, 0x40, 0xfd, 0xdb, 0x0a, 0x0d, 0x32, 0xff, 0x0d,
  0xd4, 0x1c, 0xd4, 0x2b, 0x2b, 0xe2, 0x00, 0x34, 0x33, 0x14, 0xde, 0x26,
  0x27, 0x2a, 0x15, 0xe9, 0xdb, 0x23, 0xdc, 0x24, 0x19, 0x03, 0x1d, 0x39,
  0x3a, 0x08, 0xf5, 0x1d, 0x05, 0x12, 0xe7, 0xfe, 0xe3, 0x26, 0xe2, 0x28,
  0xe9, 0xfc, 0xed, 0xf0, 0xfc, 0x13, 0x00, 0xe6, 0xea, 0x1e, 0x14, 0x22,
  0x1b, 0xed, 0x1d, 0xfd, 0xe5, 0xf6, 0xed, 0xe3, 0x00, 0x18, 0xfb, 0xe3,
  0xea, 0x22, 0x17, 0x29, 0x20, 0xe9, 0x24, 0xf3, 0xe8, 0xfe, 0xf4, 0xf6,
  0x09, 0x12, 0x08, 0xe4, 0xe9, 0x1f, 0x12, 0x25, 0x20, 0xea, 0x22, 0xff,
  0xe8, 0xe4, 0xda, 0xdd, 0xe5, 0x1f, 0xf0, 0xda, 0xf0, 0x30, 0x2c, 0x2e,
  0x1c, 0xe1, 0x27, 0xf0, 0xe8, 0xe2, 0xd5, 0xd9, 0xe1, 0x21, 0xee, 0xda,
  0xf2, 0x32, 0x2f, 0x2f, 0x1b, 0xe1, 0x27, 0xec, 0xe7, 0xfd, 0xf8, 0xf0,
  0x05, 0x0b, 0x03, 0xe4, 0xeb, 0x1e, 0x0d, 0x26, 0x20, 0xea, 0x1f, 0xf7,
  0xe8, 0x01, 0xf9, 0xeb, 0x05, 0x0b, 0x07, 0xe4, 0xe9, 0x1c, 0x0d, 0x22,
  0x20, 0xee, 0x20, 0xf9, 0xdd, 0xf2, 0xe1, 0xd6, 0xec, 0x22, 0xf9, 0xd5,
  0xe3, 0x29, 0x20, 0x32, 0x26, 0xe1, 0x30, 0xef, 0xde, 0xfa, 0xf2, 0xe1,
  0x0c, 0x0e, 0x03, 0xdd, 0xe0, 0x1f, 0x12, 0x2d, 0x24, 0xe8, 0x29, 0xf6,
  0xe4, 0xf8, 0xe8, 0xeb, 0xfa, 0x17, 0x02, 0xdd, 0xe5, 0x21, 0x1a, 0x29,
  0x21, 0xe9, 0x25, 0xfd, 0xde, 0xf7, 0xf0, 0xde, 0x04, 0x15, 0xff, 0xd8,
  0xe0, 0x22, 0x15, 0x31, 0x29, 0xe5, 0x2c, 0xf7, 0xdb, 0xff, 0xf1, 0xdb,
  0x03, 0x0e, 0x0d, 0xd7, 0xdd, 0x1a, 0x0b, 0x31, 0x2c, 0xe3, 0x2e, 0xf3,
  0xd9, 0xfa, 0xf4, 0xe8, 0x18, 0x06, 0x05, 0xd9, 0xdc, 0x20, 0x0e, 0x2e,
  0x2f, 0xe6, 0x2f, 0xf7, 0xda, 0xff, 0xfc, 0xe3, 0x1d, 0x07, 0x01, 0xd9,
  0xdd, 0x19, 0x03, 0x31, 0x2d, 0xe0, 0x2d, 0xf8, 0xe9, 0xfd, 0xef, 0xec,
  0xf4, 0x13, 0x09, 0xe5, 0xe8, 0x21, 0x1b, 0x20, 0x20, 0xef, 0x21, 0xfa,
  0x12, 0xe9, 0xf8, 0xec, 0xf0, 0xf4, 0xf0, 0xff, 0x12, 0x15, 0x24, 0x08,
  0xf9, 0xef, 0x00, 0xec, 0x1a, 0xe0, 0xdd, 0xcf, 0xcc, 0xfd, 0xfd, 0x0a,
  0x29, 0x00, 0x3a, 0xf0, 0x16, 0xdb, 0x19, 0xde, 0x2c, 0xd9, 0xcf, 0xe7,
  0xc7, 0x03, 0xe7, 0x22, 0x32, 0x23, 0x3b, 0xdf, 0xf4, 0xd8, 0xf1, 0xdd,
  0x17, 0xe2, 0xf5, 0xf2, 0xf7, 0xf1, 0xe8, 0xf8, 0x17, 0x1f, 0x37, 0x0f,
  0xee, 0xe4, 0xfb, 0xe2, 0x2a, 0xe2, 0xe5, 0x03, 0xe1, 0xf8, 0xe4, 0x24,
  0x27, 0x21, 0x2a, 0xe8, 0xe3, 0xed, 0xe4, 0xed, 0x1d, 0xd5, 0xdb, 0xd2,
  0xd3, 0xe7, 0xdf, 0xee, 0x2d, 0x27, 0x3f, 0x0e, 0x04, 0xd4, 0x12, 0xd7,
  0x31, 0xd4, 0xdb, 0xed, 0xda, 0xf0, 0xdb, 0x1e, 0x32, 0x1c, 0x3e, 0xeb,
  0xe7, 0xe6, 0xe9, 0xe4, 0x3e, 0xc0, 0xc4, 0xb3, 0xb2, 0x01, 0x15, 0x24,
  0x49, 0x26, 0x58, 0xc8, 0x31, 0xc2, 0x30, 0xc0, 0x17, 0xe2, 0xfd, 0x1f,
  0x10, 0xe5, 0xe0, 0x00, 0x0b, 0x26, 0x2e, 0x12, 0xe3, 0xe6, 0xe3, 0xf6,
  0x32, 0xd1, 0xd7, 0x02, 0xd3, 0xf8, 0xd0, 0x23, 0x2e, 0x31, 0x38, 0xe7,
  0xdd, 0xde, 0xde, 0xe5, 0x33, 0x30, 0xda, 0xd2, 0xd1, 0x2f, 0x34, 0x35,
  0x33, 0xe6, 0x1d, 0xd8, 0x1f, 0x31, 0xfd, 0xe2, 0x1b, 0x1c, 0xec, 0xee,
  0xec, 0x1d, 0x1e, 0x20, 0x1d, 0xf6, 0x14, 0xef, 0x0c, 0x19, 0xfe, 0xfd,
  0x0b, 0x1c, 0xf9, 0xed, 0xf1, 0x17, 0x1a, 0x16, 0x13, 0xf5, 0xfa, 0xf1,
  0x18, 0x17, 0x0c, 0x02, 0x27, 0x30, 0xe1, 0xdc, 0xdd, 0x29, 0x2d, 0x28,
  0x28, 0xe7, 0x1c, 0xe0, 0x1c, 0x24, 0x08, 0xf1, 0x24, 0x2d, 0xe6, 0xdd,
  0xde, 0x25, 0x28, 0x26, 0x26, 0xe8, 0x18, 0xe5, 0x1c, 0x22, 0x08, 0xf2,
  0x26, 0x2e, 0xe4, 0xdb, 0xdd, 0x26, 0x2a, 0x28, 0x29, 0xea, 0x1e, 0xe1,
  0x1b, 0x24, 0x03, 0xef, 0x26, 0x2c, 0xf0, 0xea, 0xe2, 0x24, 0x29, 0x2a,
  0x28, 0xe6, 0x0a, 0xe2, 0x11, 0x26, 0xf5, 0xfe, 0x28, 0x2b, 0xed, 0xee,
  0xe1, 0x25, 0x2a, 0x28, 0x29, 0xeb, 0x09, 0xe1, 0x14, 0x25, 0xf9, 0xfe,
  0x1d, 0x1a, 0xf2, 0xef, 0xed, 0x1a, 0x1d, 0x1e, 0x1a, 0xf1, 0x09, 0xed,
  0x11, 0x14, 0x07, 0xff, 0x14, 0x26, 0xf9, 0xeb, 0xe8, 0x21, 0x22, 0x20,
  0x1e, 0xf1, 0xf9, 0xe8, 0x1c, 0x20, 0x0f, 0x04, 0x1e, 0x1a, 0xf0, 0xef,
  0xe6, 0x1d, 0x1d, 0x21, 0x20, 0xf1, 0x08, 0xe8, 0x15, 0x20, 0x02, 0xf4,
  0x20, 0x38, 0xfb, 0xe4, 0xde, 0x2b, 0x33, 0x31, 0x2a, 0xdd, 0xe4, 0xdc,
  0x28, 0x2c, 0x1b, 0xfb, 0x0c, 0x27, 0xf1, 0xe7, 0xe5, 0x1f, 0x21, 0x21,
  0x1b, 0xea, 0xf9, 0xe9, 0x1f, 0x20, 0x17, 0xfe, 0x18, 0x22, 0xee, 0xed,
  0xed, 0x1b, 0x1f, 0x1c, 0x1b, 0xed, 0x01, 0xf0, 0x18, 0x1d, 0x0b, 0x04,
  0x1c, 0x1f, 0xee, 0xe8, 0xe8, 0x1d, 0x20, 0x21, 0x1d, 0xfa, 0x04, 0xe9,
  0x12, 0x1c, 0xff, 0xfa, 0x19, 0x1e, 0xef, 0xee, 0xea, 0x1c, 0x1c, 0x1b,
  0x1d, 0xf6, 0x0a, 0xed, 0x12, 0x1b, 0x06, 0xfd, 0x2f, 0x2a, 0xec, 0xe6,
  0xde, 0x26, 0x2c, 0x2c, 0x2a, 0xe8, 0x01, 0xe0, 0x16, 0x26, 0xf8, 0xf3,
  0x28, 0x34, 0xe8, 0xdb, 0xd9, 0x28, 0x2f, 0x2f, 0x2b, 0xe5, 0x02, 0xdc,
  0x25, 0x2c, 0x0b, 0xef, 0x07, 0x2e, 0xec, 0xde, 0xe0, 0x24, 0x2b, 0x22,
  0x1d, 0xdb, 0xfa, 0xe8, 0x2a, 0x22, 0x21, 0xf3, 0x05, 0x33, 0xf9, 0xe2,
  0xe2, 0x2a, 0x2f, 0x2d, 0x20, 0xdc, 0xe2, 0xdd, 0x2d, 0x2b, 0x1f, 0xff,
  0xef, 0x25, 0x25, 0xf8, 0x22, 0xf2, 0x06, 0x00, 0xec, 0xdf, 0xe2, 0x04,
  0x19, 0x13, 0x15, 0x1d, 0xf9, 0x19, 0x27, 0x0a, 0x24, 0xf5, 0xf2, 0x04,
  0xf3, 0xe7, 0xe2, 0xff, 0x08, 0x0b, 0x04, 0x1a, 0xe9, 0x2c, 0x2f, 0xf5,
  0x27, 0xef, 0x18, 0xff, 0xe9, 0xdb, 0xdd, 0xfb, 0x22, 0x19, 0x1d, 0x26,
  0xee, 0x24, 0x25, 0xf1, 0x1e, 0xf1, 0x09, 0xfe, 0xec, 0xdd, 0xe3, 0x02,
  0x1d, 0x0f, 0x19, 0x14, 0xe8, 0x2d, 0x29, 0xf6, 0x24, 0xee, 0x05, 0xfa,
  0xeb, 0xdb, 0xe0, 0x08, 0x20, 0x0e, 0x1e, 0x1c, 0x17, 0xf4, 0x1e, 0x38,
  0x38, 0x04, 0xec, 0x0d, 0x01, 0x1b, 0xec, 0x0d, 0xe1, 0x1f, 0xdf, 0x27,
  0x28, 0xe6, 0x01, 0x2d, 0x29, 0x12, 0xe8, 0x21, 0x23, 0x27, 0x12, 0xeb,
  0xe1, 0x1f, 0xdf, 0x21, 0x21, 0xfd, 0x23, 0x39, 0x3b, 0x0c, 0xf0, 0x1a,
  0x02, 0x1c, 0xe7, 0xfe, 0xdc, 0x27, 0xdd, 0x2b, 0x18, 0x03, 0x1b, 0x37,
  0x35, 0x09, 0xf6, 0x15, 0x03, 0x13, 0xf2, 0x08, 0xe0, 0x23, 0xe0, 0x30,
  0xe7, 0xfe, 0xf9, 0xf0, 0x02, 0x16, 0x09, 0xe6, 0xea, 0x17, 0x0f, 0x24,
  0x21, 0xf2, 0x20, 0xfe, 0xe0, 0x08, 0xf6, 0xe2, 0x09, 0x0d, 0x10, 0xdf,
  0xe5, 0x17, 0x00, 0x29, 0x27, 0xea, 0x27, 0xfa, 0xe2, 0xf9, 0xf0, 0xe4,
  0x05, 0x10, 0xfd, 0xdf, 0xe5, 0x1f, 0x14, 0x2a, 0x24, 0xea, 0x27, 0xf8,
  0xde, 0xf7, 0xf0, 0xe0, 0xfe, 0x12, 0x10, 0xda, 0xe3, 0x21, 0x18, 0x2c,
  0x27, 0xe0, 0x2b, 0xe6, 0x1d, 0xdb, 0xeb, 0xeb, 0xf9, 0xeb, 0xe2, 0xf7,
  0x11, 0x24, 0x30, 0x05, 0xec, 0xe4, 0xf3, 0xf4, 0x2d, 0xd5, 0xdc, 0xfa,
  0xe3, 0xe4, 0xd9, 0x0b, 0x29, 0x28, 0x3e, 0xf9, 0xdb, 0xd7, 0xe2, 0xe1,
  0x0f, 0x1b, 0xf5, 0xef, 0xf1, 0x18, 0x18, 0x18, 0x14, 0xfa, 0x01, 0xf3,
  0x14, 0x13, 0x0c, 0x06, 0x1d, 0x1e, 0xf1, 0xeb, 0xe9, 0x1c, 0x24, 0x1e,
  0x1f, 0xf3, 0x08, 0xe9, 0x14, 0x1c, 0x05, 0xf8, 0x26, 0xd9, 0xdc, 0xdf,
  0xd7, 0xef, 0xe0, 0x0f, 0x28, 0x24, 0x38, 0xf5, 0xef, 0xdd, 0xf4, 0xe5,
  0xce, 0xfb, 0xff, 0xff, 0x04, 0x00, 0x00, 0x00, 0x00, 0x02, 0x00, 0x00,
  0xc2, 0xd9, 0xe9, 0x7b, 0x7f, 0x2e, 0xf4, 0xbd, 0xbc, 0x7a, 0xfd, 0x33,
  0xe7, 0xe5, 0x1d, 0x13, 0xde, 0x2a, 0x54, 0xa0, 0x96, 0x81, 0x12, 0x60,
  0x03, 0x34, 0x25, 0xb0, 0x2a, 0x3e, 0x0f, 0x98, 0x81, 0x1e, 0xda, 0x93,
  0xaf, 0x96, 0xd0, 0xcc, 0x57, 0xe7, 0x66, 0x1a, 0xf5, 0x7c, 0xe6, 0xd5,
  0xe1, 0x7f, 0x29, 0xd3, 0x07, 0x18, 0x4f, 0x39, 0xec, 0x98, 0x90, 0xd9,
  0x30, 0x05, 0x0d, 0x04, 0xb5, 0xdb, 0x41, 0xe7, 0xee, 0xb3, 0x4f, 0xf5,
  0xc2, 0x10, 0x5e, 0xcc, 0x1b, 0xe6, 0x81, 0x9a, 0x66, 0x50, 0x01, 0xdf,
  0x0b, 0xcc, 0x63, 0x51, 0xf5, 0x63, 0x5f, 0x11, 0x46, 0x7f, 0x97, 0x09,
  0x83, 0x7f, 0x4c, 0xd4, 0x29, 0x06, 0x17, 0xfa, 0xc7, 0x92, 0x84, 0xed,
  0x1f, 0x0a, 0x41, 0x0b, 0x7f, 0xb2, 0xe3, 0x02, 0xd0, 0x08, 0xde, 0x3d,
  0x32, 0x43, 0x58, 0xe6, 0xc6, 0xe3, 0xd7, 0xfe, 0x09, 0x9b, 0x1e, 0x7a,
  0x7f, 0xef, 0xac, 0xdf, 0xe1, 0x3a, 0xee, 0x07, 0xb9, 0xdc, 0xd5, 0x21,
  0x22, 0x15, 0x7f, 0x5a, 0xf8, 0xa4, 0x10, 0xf7, 0x6c, 0x35, 0x03, 0xbd,
  0x02, 0x65, 0xfd, 0xbf, 0x53, 0x04, 0xfd, 0x7f, 0x34, 0x25, 0x0e, 0x47,
  0x0b, 0x16, 0xe3, 0xe0, 0xdb, 0x15, 0xca, 0x1d, 0x0f, 0x69, 0x6f, 0xb8,
  0xe6, 0xc7, 0x53, 0xfa, 0x72, 0xed, 0x12, 0xe3, 0x2a, 0xfc, 0x10, 0x81,
  0xb5, 0x17, 0xd7, 0x81, 0x9b, 0x11, 0x06, 0xd6, 0xe0, 0xd5, 0x08, 0x0b,
  0x2c, 0xe8, 0x44, 0x05, 0x51, 0x17, 0xd7, 0x95, 0x81, 0xfa, 0xff, 0x45,
  0x2d, 0xd3, 0x4f, 0xe0, 0x05, 0x01, 0x08, 0x05, 0x7f, 0xc8, 0x3f, 0x63,
  0x56, 0xf7, 0xc0, 0x64, 0x15, 0xd1, 0xdc, 0xc3, 0xab, 0xef, 0xb8, 0x10,
  0x5c, 0x72, 0x4b, 0x63, 0xc1, 0x4b, 0x49, 0xba, 0x1d, 0xa6, 0xde, 0x0e,
  0x06, 0x7f, 0xb4, 0x96, 0xea, 0xa4, 0xac, 0x92, 0x88, 0x10, 0xed, 0xc5,
  0xfc, 0x3d, 0x7f, 0x0d, 0x04, 0xdf, 0x17, 0xec, 0x7f, 0x39, 0x06, 0xf1,
  0xb4, 0x02, 0xf8, 0x75, 0x0f, 0xa9, 0xdc, 0xc5, 0xe7, 0xff, 0xef, 0x02,
  0x81, 0x08, 0x05, 0xaf, 0xf6, 0xef, 0xd0, 0xa6, 0xc9, 0xdc, 0xf5, 0x2d,
  0x28, 0xdc, 0x32, 0xff, 0xe5, 0xcf, 0x12, 0x81, 0xf6, 0x31, 0xd7, 0xd2,
  0x12, 0xf3, 0xc6, 0xca, 0x53, 0x18, 0x02, 0xc3, 0xea, 0x81, 0xd2, 0xa9,
  0xae, 0xfe, 0xd0, 0xc3, 0xf0, 0x4c, 0x7d, 0x0d, 0xf7, 0xe8, 0x01, 0xf4,
  0x18, 0x06, 0xc5, 0x98, 0x81, 0x0a, 0x1f, 0x1b, 0x0e, 0x0d, 0x4c, 0xf2,
  0x15, 0xf5, 0x1f, 0x02, 0xa3, 0x37, 0xe2, 0x92, 0x48, 0xe5, 0x2a, 0x67,
  0x9d, 0xa7, 0xb4, 0x7f, 0x2f, 0x54, 0x0f, 0x8d, 0xe7, 0xbb, 0x4d, 0xc9,
  0x2a, 0x24, 0x39, 0xd1, 0xdb, 0xea, 0x1c, 0xd2, 0x3a, 0x69, 0x81, 0x0f,
  0xd3, 0x01, 0x67, 0x83, 0x57, 0x81, 0x00, 0xe8, 0x38, 0xac, 0xd1, 0x4c,
  0xbe, 0x7c, 0xbb, 0xd9, 0xbe, 0xf9, 0x39, 0xb4, 0x39, 0x34, 0xd7, 0x51,
  0x71, 0x48, 0x35, 0xec, 0x7f, 0x63, 0x82, 0x2d, 0x81, 0x27, 0x1c, 0xc6,
  0x12, 0x05, 0x05, 0xaf, 0xc3, 0xf4, 0xe4, 0x1b, 0x33, 0xf9, 0x38, 0x09,
  0x51, 0x3d, 0x78, 0xbe, 0x78, 0x81, 0x3b, 0x09, 0x8c, 0x6c, 0xe9, 0x35,
  0xfe, 0x52, 0x8f, 0xe5, 0x48, 0x7b, 0xc5, 0xbc, 0x91, 0x3c, 0x7f, 0x5a,
  0x49, 0xd2, 0xee, 0xca, 0x34, 0x06, 0x10, 0x02, 0x81, 0xf7, 0x15, 0x04,
  0x58, 0xf5, 0xf7, 0xab, 0xae, 0xf6, 0xe4, 0x2a, 0x1b, 0xe9, 0x2c, 0x18,
  0x2e, 0x26, 0x38, 0x8f, 0x01, 0xc8, 0x7f, 0xb6, 0x09, 0x65, 0x01, 0xd1,
  0x17, 0x7d, 0x54, 0x44, 0xb4, 0x82, 0x12, 0xa6, 0xa5, 0x4f, 0xbc, 0x83,
  0xf7, 0x35, 0xaf, 0x5c, 0x7f, 0x20, 0x98, 0xfa, 0xda, 0xfd, 0xff, 0xff,
  0x04, 0x00, 0x00, 0x00, 0x80, 0x00, 0x00, 0x00, 0x33, 0x03, 0x00, 0x00,
  0xd6, 0xf2, 0xff, 0xff, 0x00, 0x00, 0x00, 0x00, 0x0f, 0x03, 0x00, 0x00,
  0x7a, 0xe4, 0xff, 0xff, 0x0f, 0xf6, 0xff, 0xff, 0x01, 0x10, 0x00, 0x00,
  0x77, 0x06, 0x00, 0x00, 0xa9, 0x02, 0x00, 0x00, 0xbe, 0xfc, 0xff, 0xff,
  0xd8, 0x05, 0x00, 0x00, 0xed, 0xff, 0xff, 0xff, 0x4f, 0x0d, 0x00, 0x00,
  0x0d, 0x0a, 0x00, 0x00, 0x69, 0x05, 0x00, 0x00, 0x42, 0x02, 0x00, 0x00,
  0x5e, 0x05, 0x00, 0x00, 0x4e, 0x0a, 0x00, 0x00, 0xe6, 0xff, 0xff, 0xff,
  0x40, 0xeb, 0xff, 0xff, 0x19, 0x01, 0x00, 0x00, 0x88, 0x06, 0x00, 0x00,
  0xcb, 0xf7, 0xff, 0xff, 0xb3, 0xe1, 0xff, 0xff, 0x24, 0xd6, 0xff, 0xff,
  0xa6, 0xeb, 0xff, 0xff, 0x64, 0x01, 0x00, 0x00, 0xee, 0xf6, 0xff, 0xff,
  0x65, 0x08, 0x00, 0x00, 0x55, 0x03, 0x00, 0x00, 0x4d, 0xe9, 0xff, 0xff,
  0x1f, 0xc8, 0xff, 0xff, 0x66, 0xfe, 0xff, 0xff, 0x04, 0x00, 0x00, 0x00,
  0xa0, 0x00, 0x00, 0x00, 0xf3, 0xf9, 0x02, 0x52, 0x08, 0x08, 0x58, 0x9b,
  0x03, 0x12, 0xe4, 0xe5, 0x01, 0xcf, 0x15, 0x02, 0x99, 0xf6, 0x27, 0x02,
  0x81, 0x91, 0x14, 0x04, 0x14, 0xe7, 0x34, 0xff, 0xce, 0x35, 0xf1, 0xfb,
  0x34, 0xff, 0xfe, 0xe4, 0x10, 0x05, 0xde, 0x26, 0x35, 0x03, 0x4d, 0xfe,
  0x81, 0xb5, 0x42, 0x13, 0xc1, 0x08, 0xae, 0xf8, 0xe7, 0x86, 0xf9, 0xf0,
  0xf4, 0x00, 0xa3, 0x11, 0xde, 0xfc, 0x15, 0xff, 0x2e, 0x0c, 0xff, 0xe2,
  0xea, 0x13, 0x06, 0xe3, 0xf1, 0xf6, 0xa6, 0xfb, 0x1b, 0xcc, 0xa1, 0xed,
  0x53, 0x81, 0x24, 0x0c, 0x43, 0x20, 0x10, 0xef, 0xee, 0xec, 0x33, 0x11,
  0xe6, 0x26, 0x04, 0x11, 0xc7, 0x17, 0xee, 0x87, 0xe1, 0x16, 0x81, 0x51,
  0x10, 0x17, 0x02, 0x12, 0xe0, 0x50, 0x35, 0x07, 0x6a, 0x12, 0xea, 0xef,
  0x69, 0x3c, 0x0e, 0x1d, 0xfc, 0x09, 0x98, 0xf4, 0xc2, 0xc4, 0xf4, 0xeb,
  0x90, 0xfe, 0x00, 0x5a, 0xec, 0xe9, 0x11, 0x07, 0x81, 0x02, 0x12, 0x09,
  0x05, 0x4e, 0xee, 0x14, 0xec, 0x2f, 0xb9, 0x01, 0x96, 0x5a, 0x19, 0xeb,
  0xfb, 0xee, 0xd1, 0xf7, 0x69, 0xad, 0xe9, 0xfa, 0x12, 0xff, 0xff, 0xff,
  0x04, 0x00, 0x00, 0x00, 0x14, 0x00, 0x00, 0x00, 0xfa, 0x04, 0x00, 0x00,
  0x6b, 0x05, 0x00, 0x00, 0x2c, 0xfa, 0xff, 0xff, 0xca, 0xfa, 0xff, 0xff,
  0xc3, 0xfe, 0xff, 0xff, 0x32, 0xff, 0xff, 0xff, 0x04, 0x00, 0x00, 0x00,
  0x04, 0x00, 0x00, 0x00, 0x01, 0x00, 0x00, 0x00, 0x42, 0xff, 0xff, 0xff,
  0x04, 0x00, 0x00, 0x00, 0x04, 0x00, 0x00, 0x00, 0x53, 0x02, 0x00, 0x00,
  0x52, 0xff, 0xff, 0xff, 0x04, 0x00, 0x00, 0x00, 0x04, 0x00, 0x00, 0x00,
  0x00, 0x00, 0x00, 0x00, 0x60, 0xf1, 0xff, 0xff, 0x64, 0xf1, 0xff, 0xff,
  0x0f, 0x00, 0x00, 0x00, 0x4d, 0x4c, 0x49, 0x52, 0x20, 0x43, 0x6f, 0x6e,
  0x76, 0x65, 0x72, 0x74, 0x65, 0x64, 0x2e, 0x00, 0x01, 0x00, 0x00, 0x00,
  0x14, 0x00, 0x00, 0x00, 0x00, 0x00, 0x0e, 0x00, 0x18, 0x00, 0x14, 0x00,
  0x10, 0x00, 0x0c, 0x00, 0x08, 0x00, 0x04, 0x00, 0x0e, 0x00, 0x00, 0x00,
  0x14, 0x00, 0x00, 0x00, 0x1c, 0x00, 0x00, 0x00, 0x4c, 0x02, 0x00, 0x00,
  0x50, 0x02, 0x00, 0x00, 0x54, 0x02, 0x00, 0x00, 0x04, 0x00, 0x00, 0x00,
  0x6d, 0x61, 0x69, 0x6e, 0x00, 0x00, 0x00, 0x00, 0x0a, 0x00, 0x00, 0x00,
  0x14, 0x02, 0x00, 0x00, 0xe4, 0x01, 0x00, 0x00, 0xb0, 0x01, 0x00, 0x00,
  0x7c, 0x01, 0x00, 0x00, 0x34, 0x01, 0x00, 0x00, 0x00, 0x01, 0x00, 0x00,
  0xcc, 0x00, 0x00, 0x00, 0x88, 0x00, 0x00, 0x00, 0x40, 0x00, 0x00, 0x00,
  0x04, 0x00, 0x00, 0x00, 0x92, 0xff, 0xff, 0xff, 0x1c, 0x00, 0x00, 0x00,
  0x00, 0x00, 0x00, 0x09, 0x1c, 0x00, 0x00, 0x00, 0x20, 0x00, 0x00, 0x00,
  0x08, 0x00, 0x00, 0x00, 0x00, 0x00, 0x06, 0x00, 0x08, 0x00, 0x04, 0x00,
  0x06, 0x00, 0x00, 0x00, 0x00, 0x00, 0x80, 0x3f, 0x01, 0x00, 0x00, 0x00,
  0x12, 0x00, 0x00, 0x00, 0x01, 0x00, 0x00, 0x00, 0x11, 0x00, 0x00, 0x00,
  0xe6, 0xfe, 0xff, 0xff, 0x14, 0x00, 0x00, 0x00, 0x00, 0x00, 0x00, 0x08,
  0x10, 0x00, 0x00, 0x00, 0x14, 0x00, 0x00, 0x00, 0x07, 0x00, 0x00, 0x00,
  0x34, 0xf2, 0xff, 0xff, 0x01, 0x00, 0x00, 0x00, 0x11, 0x00, 0x00, 0x00,
  0x03, 0x00, 0x00, 0x00, 0x10, 0x00, 0x00, 0x00, 0x05, 0x00, 0x00, 0x00,
  0x04, 0x00, 0x00, 0x00, 0x00, 0x00, 0x0e, 0x00, 0x1a, 0x00, 0x14, 0x00,
  0x10, 0x00, 0x0c, 0x00, 0x0b, 0x00, 0x04, 0x00, 0x0e, 0x00, 0x00, 0x00,
  0x1c, 0x00, 0x00, 0x00, 0x00, 0x00, 0x00, 0x08, 0x1c, 0x00, 0x00, 0x00,
  0x20, 0x00, 0x00, 0x00, 0x07, 0x00, 0x00, 0x00, 0x00, 0x00, 0x06, 0x00,
  0x08, 0x00, 0x07, 0x00, 0x06, 0x00, 0x00, 0x00, 0x00, 0x00, 0x00, 0x01,
  0x01, 0x00, 0x00, 0x00, 0x10, 0x00, 0x00, 0x00, 0x03, 0x00, 0x00, 0x00,
  0x0f, 0x00, 0x00, 0x00, 0x07, 0x00, 0x00, 0x00, 0x06, 0x00, 0x00, 0x00,
  0x6a, 0xff, 0xff, 0xff, 0x14, 0x00, 0x00, 0x00, 0x00, 0x00, 0x00, 0x1b,
  0x10, 0x00, 0x00, 0x00, 0x14, 0x00, 0x00, 0x00, 0x06, 0x00, 0x00, 0x00,
  0xb8, 0xf2, 0xff, 0xff, 0x01, 0x00, 0x00, 0x00, 0x0f, 0x00, 0x00, 0x00,
  0x02, 0x00, 0x00, 0x00, 0x0e, 0x00, 0x00, 0x00, 0x03, 0x00, 0x00, 0x00,
  0x9a, 0xff, 0xff, 0xff, 0x14, 0x00, 0x00, 0x00, 0x00, 0x00, 0x00, 0x17,
  0x10, 0x00, 0x00, 0x00, 0x14, 0x00, 0x00, 0x00, 0x05, 0x00, 0x00, 0x00,
  0xe8, 0xf2, 0xff, 0xff, 0x01, 0x00, 0x00, 0x00, 0x0e, 0x00, 0x00, 0x00,
  0x02, 0x00, 0x00, 0x00, 0x08, 0x00, 0x00, 0x00, 0x0d, 0x00, 0x00, 0x00,
  0xca, 0xff, 0xff, 0xff, 0x14, 0x00, 0x00, 0x00, 0x00, 0x00, 0x00, 0x62,
  0x10, 0x00, 0x00, 0x00, 0x14, 0x00, 0x00, 0x00, 0x04, 0x00, 0x00, 0x00,
  0x18, 0xf3, 0xff, 0xff, 0x01, 0x00, 0x00, 0x00, 0x0d, 0x00, 0x00, 0x00,
  0x03, 0x00, 0x00, 0x00, 0x0b, 0x00, 0x00, 0x00, 0x0c, 0x00, 0x00, 0x00,
  0x0a, 0x00, 0x00, 0x00, 0x00, 0x00, 0x0e, 0x00, 0x18, 0x00, 0x14, 0x00,
  0x10, 0x00, 0x0c, 0x00, 0x0b, 0x00, 0x04, 0x00, 0x0e, 0x00, 0x00, 0x00,
  0x14, 0x00, 0x00, 0x00, 0x00, 0x00, 0x00, 0x0b, 0x10, 0x00, 0x00, 0x00,
  0x14, 0x00, 0x00, 0x00, 0x03, 0x00, 0x00, 0x00, 0x5c, 0xf3, 0xff, 0xff,
  0x01, 0x00, 0x00, 0x00, 0x0c, 0x00, 0x00, 0x00, 0x02, 0x00, 0x00, 0x00,
  0x0a, 0x00, 0x00, 0x00, 0x02, 0x00, 0x00, 0x00, 0xda, 0xff, 0xff, 0xff,
  0x0c, 0x00, 0x00, 0x00, 0x10, 0x00, 0x00, 0x00, 0x02, 0x00, 0x00, 0x00,
  0x01, 0x00, 0x00, 0x00, 0x0b, 0x00, 0x00, 0x00, 0x02, 0x00, 0x00, 0x00,
  0x0a, 0x00, 0x00, 0x00, 0x01, 0x00, 0x00, 0x00, 0x00, 0x00, 0x0a, 0x00,
  0x10, 0x00, 0x0c, 0x00, 0x08, 0x00, 0x04, 0x00, 0x0a, 0x00, 0x00, 0x00,
  0x0c, 0x00, 0x00, 0x00, 0x10, 0x00, 0x00, 0x00, 0x01, 0x00, 0x00, 0x00,
  0x01, 0x00, 0x00, 0x00, 0x0a, 0x00, 0x00, 0x00, 0x01, 0x00, 0x00, 0x00,
  0x09, 0x00, 0x00, 0x00, 0x00, 0x00, 0x0a, 0x00, 0x0c, 0x00, 0x00, 0x00,
  0x08, 0x00, 0x04, 0x00, 0x0a, 0x00, 0x00, 0x00, 0x08, 0x00, 0x00, 0x00,
  0x0c, 0x00, 0x00, 0x00, 0x01, 0x00, 0x00, 0x00, 0x09, 0x00, 0x00, 0x00,
  0x01, 0x00, 0x00, 0x00, 0x00, 0x00, 0x00, 0x00, 0x01, 0x00, 0x00, 0x00,
  0x12, 0x00, 0x00, 0x00, 0x01, 0x00, 0x00, 0x00, 0x00, 0x00, 0x00, 0x00,
  0x13, 0x00, 0x00, 0x00, 0x00, 0x0b, 0x00, 0x00, 0xac, 0x0a, 0x00, 0x00,
  0x58, 0x0a, 0x00, 0x00, 0x1c, 0x0a, 0x00, 0x00, 0x8c, 0x09, 0x00, 0x00,
  0xf8, 0x08, 0x00, 0x00, 0x24, 0x07, 0x00, 0x00, 0x48, 0x05, 0x00, 0x00,
  0xe4, 0x04, 0x00, 0x00, 0x94, 0x04, 0x00, 0x00, 0x18, 0x04, 0x00, 0x00,
  0xb4, 0x03, 0x00, 0x00, 0x50, 0x03, 0x00, 0x00, 0xe8, 0x02, 0x00, 0x00,
  0x58, 0x02, 0x00, 0x00, 0xd8, 0x01, 0x00, 0x00, 0x1c, 0x01, 0x00, 0x00,
  0x80, 0x00, 0x00, 0x00, 0x04, 0x00, 0x00, 0x00, 0x62, 0xf5, 0xff, 0xff,
  0x00, 0x00, 0x00, 0x01, 0x18, 0x00, 0x00, 0x00, 0x20, 0x00, 0x00, 0x00,
  0x3c, 0x00, 0x00, 0x00, 0x13, 0x00, 0x00, 0x00, 0x00, 0x00, 0x00, 0x09,
  0x50, 0x00, 0x00, 0x00, 0x02, 0x00, 0x00, 0x00, 0xff, 0xff, 0xff, 0xff,
  0x05, 0x00, 0x00, 0x00, 0x4c, 0xf5, 0xff, 0xff, 0x08, 0x00, 0x00, 0x00,
  0x10, 0x00, 0x00, 0x00, 0x01, 0x00, 0x00, 0x00, 0x80, 0xff, 0xff, 0xff,
  0xff, 0xff, 0xff, 0xff, 0x01, 0x00, 0x00, 0x00, 0x00, 0x00, 0x80, 0x3b,
  0x1b, 0x00, 0x00, 0x00, 0x53, 0x74, 0x61, 0x74, 0x65, 0x66, 0x75, 0x6c,
  0x50, 0x61, 0x72, 0x74, 0x69, 0x74, 0x69, 0x6f, 0x6e, 0x65, 0x64, 0x43,
  0x61, 0x6c, 0x6c, 0x5f, 0x31, 0x3a, 0x30, 0x00, 0x02, 0x00, 0x00, 0x00,
  0x01, 0x00, 0x00, 0x00, 0x05, 0x00, 0x00, 0x00, 0xda, 0xf5, 0xff, 0xff,
  0x00, 0x00, 0x00, 0x01, 0x18, 0x00, 0x00, 0x00, 0x20, 0x00, 0x00, 0x00,
  0x3c, 0x00, 0x00, 0x00, 0x12, 0x00, 0x00, 0x00, 0x00, 0x00, 0x00, 0x09,
  0x70, 0x00, 0x00, 0x00, 0x02, 0x00, 0x00, 0x00, 0xff, 0xff, 0xff, 0xff,
  0x05, 0x00, 0x00, 0x00, 0xc4, 0xf5, 0xff, 0xff, 0x08, 0x00, 0x00, 0x00,
  0x10, 0x00, 0x00, 0x00, 0x01, 0x00, 0x00, 0x00, 0x08, 0x00, 0x00, 0x00,
  0x00, 0x00, 0x00, 0x00, 0x01, 0x00, 0x00, 0x00, 0x26, 0x38, 0x81, 0x3d,
  0x3a, 0x00, 0x00, 0x00, 0x73, 0x65, 0x71, 0x75, 0x65, 0x6e, 0x74, 0x69,
  0x61, 0x6c, 0x5f, 0x31, 0x2f, 0x6f, 0x75, 0x74, 0x70, 0x75, 0x74, 0x5f,
  0x31, 0x2f, 0x4d, 0x61, 0x74, 0x4d, 0x75, 0x6c, 0x3b, 0x73, 0x65, 0x71,
  0x75, 0x65, 0x6e, 0x74, 0x69, 0x61, 0x6c, 0x5f, 0x31, 0x2f, 0x6f, 0x75,
  0x74, 0x70, 0x75, 0x74, 0x5f, 0x31, 0x2f, 0x42, 0x69, 0x61, 0x73, 0x41,
  0x64, 0x64, 0x00, 0x00, 0x02, 0x00, 0x00, 0x00, 0x01, 0x00, 0x00, 0x00,
  0x05, 0x00, 0x00, 0x00, 0x72, 0xf6, 0xff, 0xff, 0x00, 0x00, 0x00, 0x01,
  0x18, 0x00, 0x00, 0x00, 0x20, 0x00, 0x00, 0x00, 0x40, 0x00, 0x00, 0x00,
  0x11, 0x00, 0x00, 0x00, 0x00, 0x00, 0x00, 0x09, 0x90, 0x00, 0x00, 0x00,
  0x02, 0x00, 0x00, 0x00, 0xff, 0xff, 0xff, 0xff, 0x20, 0x00, 0x00, 0x00,
  0x5c, 0xf6, 0xff, 0xff, 0x08, 0x00, 0x00, 0x00, 0x14, 0x00, 0x00, 0x00,
  0x01, 0x00, 0x00, 0x00, 0x80, 0xff, 0xff, 0xff, 0xff, 0xff, 0xff, 0xff,
  0x00, 0x00, 0x00, 0x00, 0x01, 0x00, 0x00, 0x00, 0x03, 0xb7, 0xed, 0x3b,
  0x55, 0x00, 0x00, 0x00, 0x73, 0x65, 0x71, 0x75, 0x65, 0x6e, 0x74, 0x69,
  0x61, 0x6c, 0x5f, 0x31, 0x2f, 0x68, 0x69, 0x64, 0x64, 0x65, 0x6e, 0x5f,
  0x31, 0x2f, 0x4d, 0x61, 0x74, 0x4d, 0x75, 0x6c, 0x3b, 0x73, 0x65, 0x71,
  0x75, 0x65, 0x6e, 0x74, 0x69, 0x61, 0x6c, 0x5f, 0x31, 0x2f, 0x68, 0x69,
  0x64, 0x64, 0x65, 0x6e, 0x5f, 0x31, 0x2f, 0x52, 0x65, 0x6c, 0x75, 0x3b,
  0x73, 0x65, 0x71, 0x75, 0x65, 0x6e, 0x74, 0x69, 0x61, 0x6c, 0x5f, 0x31,
  0x2f, 0x68, 0x69, 0x64, 0x64, 0x65, 0x6e, 0x5f, 0x31, 0x2f, 0x42, 0x69,
  0x61, 0x73, 0x41, 0x64, 0x64, 0x00, 0x00, 0x00, 0x02, 0x00, 0x00, 0x00,
  0x01, 0x00, 0x00, 0x00, 0x20, 0x00, 0x00, 0x00, 0x2a, 0xf7, 0xff, 0xff,
  0x00, 0x00, 0x00, 0x01, 0x18, 0x00, 0x00, 0x00, 0x20, 0x00, 0x00, 0x00,
  0x40, 0x00, 0x00, 0x00, 0x10, 0x00, 0x00, 0x00, 0x00, 0x00, 0x00, 0x09,
  0x54, 0x00, 0x00, 0x00, 0x02, 0x00, 0x00, 0x00, 0xff, 0xff, 0xff, 0xff,
  0x10, 0x00, 0x00, 0x00, 0x14, 0xf7, 0xff, 0xff, 0x08, 0x00, 0x00, 0x00,
  0x14, 0x00, 0x00, 0x00, 0x01, 0x00, 0x00, 0x00, 0xff, 0xff, 0xff, 0xff,
  0xff, 0xff, 0xff, 0xff, 0x00, 0x00, 0x00, 0x00, 0x01, 0x00, 0x00, 0x00,
  0x4a, 0xf3, 0x70, 0x3b, 0x18, 0x00, 0x00, 0x00, 0x73, 0x65, 0x71, 0x75,
  0x65, 0x6e, 0x74, 0x69, 0x61, 0x6c, 0x5f, 0x31, 0x2f, 0x70, 0x6f, 0x6f,
  0x6c, 0x5f, 0x31, 0x2f, 0x4d, 0x65, 0x61, 0x6e, 0x00, 0x00, 0x00, 0x00,
  0x02, 0x00, 0x00, 0x00, 0x01, 0x00, 0x00, 0x00, 0x10, 0x00, 0x00, 0x00,
  0xa6, 0xf7, 0xff, 0xff, 0x00, 0x00, 0x00, 0x01, 0x18, 0x00, 0x00, 0x00,
  0x24, 0x00, 0x00, 0x00, 0x44, 0x00, 0x00, 0x00, 0x0f, 0x00, 0x00, 0x00,
  0x00, 0x00, 0x00, 0x09, 0x60, 0x00, 0x00, 0x00, 0x03, 0x00, 0x00, 0x00,
  0xff, 0xff, 0xff, 0xff, 0x40, 0x00, 0x00, 0x00, 0x10, 0x00, 0x00, 0x00,
  0x94, 0xf7, 0xff, 0xff, 0x08, 0x00, 0x00, 0x00, 0x14, 0x00, 0x00, 0x00,
  0x01, 0x00, 0x00, 0x00, 0x05, 0x00, 0x00, 0x00, 0x00, 0x00, 0x00, 0x00,
  0x00, 0x00, 0x00, 0x00, 0x01, 0x00, 0x00, 0x00, 0x69, 0x45, 0xeb, 0x3c,
  0x22, 0x00, 0x00, 0x00, 0x73, 0x65, 0x71, 0x75, 0x65, 0x6e, 0x74, 0x69,
  0x61, 0x6c, 0x5f, 0x31, 0x2f, 0x65, 0x6d, 0x62, 0x65, 0x64, 0x64, 0x69,
  0x6e, 0x67, 0x5f, 0x31, 0x2f, 0x47, 0x61, 0x74, 0x68, 0x65, 0x72, 0x56,
  0x32, 0x3b, 0x00, 0x00, 0x03, 0x00, 0x00, 0x00, 0x01, 0x00, 0x00, 0x00,
  0x40, 0x00, 0x00, 0x00, 0x10, 0x00, 0x00, 0x00, 0x32, 0xf8, 0xff, 0xff,
  0x00, 0x00, 0x00, 0x01, 0x18, 0x00, 0x00, 0x00, 0x20, 0x00, 0x00, 0x00,
  0x20, 0x00, 0x00, 0x00, 0x0e, 0x00, 0x00, 0x00, 0x00, 0x00, 0x00, 0x02,
  0x3c, 0x00, 0x00, 0x00, 0x02, 0x00, 0x00, 0x00, 0xff, 0xff, 0xff, 0xff,
  0x40, 0x00, 0x00, 0x00, 0x48, 0xf7, 0xff, 0xff, 0x21, 0x00, 0x00, 0x00,
  0x73, 0x65, 0x71, 0x75, 0x65, 0x6e, 0x74, 0x69, 0x61, 0x6c, 0x5f, 0x31,
  0x2f, 0x65, 0x6d, 0x62, 0x65, 0x64, 0x64, 0x69, 0x6e, 0x67, 0x5f, 0x31,
  0x2f, 0x53, 0x65, 0x6c, 0x65, 0x63, 0x74, 0x56, 0x32, 0x00, 0x00, 0x00,
  0x02, 0x00, 0x00, 0x00, 0x01, 0x00, 0x00, 0x00, 0x40, 0x00, 0x00, 0x00,
  0x96, 0xf8, 0xff, 0xff, 0x00, 0x00, 0x00, 0x01, 0x18, 0x00, 0x00, 0x00,
  0x20, 0x00, 0x00, 0x00, 0x20, 0x00, 0x00, 0x00, 0x0d, 0x00, 0x00, 0x00,
  0x00, 0x00, 0x00, 0x02, 0x38, 0x00, 0x00, 0x00, 0x02, 0x00, 0x00, 0x00,
  0xff, 0xff, 0xff, 0xff, 0x40, 0x00, 0x00, 0x00, 0xac, 0xf7, 0xff, 0xff,
  0x1c, 0x00, 0x00, 0x00, 0x73, 0x65, 0x71, 0x75, 0x65, 0x6e, 0x74, 0x69,
  0x61, 0x6c, 0x5f, 0x31, 0x2f, 0x65, 0x6d, 0x62, 0x65, 0x64, 0x64, 0x69,
  0x6e, 0x67, 0x5f, 0x31, 0x2f, 0x61, 0x64, 0x64, 0x00, 0x00, 0x00, 0x00,
  0x02, 0x00, 0x00, 0x00, 0x01, 0x00, 0x00, 0x00, 0x40, 0x00, 0x00, 0x00,
  0xf6, 0xf8, 0xff, 0xff, 0x00, 0x00, 0x00, 0x01, 0x18, 0x00, 0x00, 0x00,
  0x20, 0x00, 0x00, 0x00, 0x20, 0x00, 0x00, 0x00, 0x0c, 0x00, 0x00, 0x00,
  0x00, 0x00, 0x00, 0x06, 0x38, 0x00, 0x00, 0x00, 0x02, 0x00, 0x00, 0x00,
  0xff, 0xff, 0xff, 0xff, 0x40, 0x00, 0x00, 0x00, 0x0c, 0xf8, 0xff, 0xff,
  0x1d, 0x00, 0x00, 0x00, 0x73, 0x65, 0x71, 0x75, 0x65, 0x6e, 0x74, 0x69,
  0x61, 0x6c, 0x5f, 0x31, 0x2f, 0x65, 0x6d, 0x62, 0x65, 0x64, 0x64, 0x69,
  0x6e, 0x67, 0x5f, 0x31, 0x2f, 0x4c, 0x65, 0x73, 0x73, 0x00, 0x00, 0x00,
  0x02, 0x00, 0x00, 0x00, 0x01, 0x00, 0x00, 0x00, 0x40, 0x00, 0x00, 0x00,
  0x56, 0xf9, 0xff, 0xff, 0x00, 0x00, 0x00, 0x01, 0x18, 0x00, 0x00, 0x00,
  0x20, 0x00, 0x00, 0x00, 0x20, 0x00, 0x00, 0x00, 0x0b, 0x00, 0x00, 0x00,
  0x00, 0x00, 0x00, 0x02, 0x38, 0x00, 0x00, 0x00, 0x02, 0x00, 0x00, 0x00,
  0xff, 0xff, 0xff, 0xff, 0x40, 0x00, 0x00, 0x00, 0x6c, 0xf8, 0xff, 0xff,
  0x1d, 0x00, 0x00, 0x00, 0x73, 0x65, 0x71, 0x75, 0x65, 0x6e, 0x74, 0x69,
  0x61, 0x6c, 0x5f, 0x31, 0x2f, 0x65, 0x6d, 0x62, 0x65, 0x64, 0x64, 0x69,
  0x6e, 0x67, 0x5f, 0x31, 0x2f, 0x43, 0x61, 0x73, 0x74, 0x00, 0x00, 0x00,
  0x02, 0x00, 0x00, 0x00, 0x01, 0x00, 0x00, 0x00, 0x40, 0x00, 0x00, 0x00,
  0x00, 0x00, 0x16, 0x00, 0x1c, 0x00, 0x18, 0x00, 0x00, 0x00, 0x14, 0x00,
  0x10, 0x00, 0x0c, 0x00, 0x00, 0x00, 0x00, 0x00, 0x08, 0x00, 0x07, 0x00,
  0x16, 0x00, 0x00, 0x00, 0x00, 0x00, 0x00, 0x01, 0x14, 0x00, 0x00, 0x00,
  0x1c, 0x00, 0x00, 0x00, 0x1c, 0x00, 0x00, 0x00, 0x0a, 0x00, 0x00, 0x00,
  0x28, 0x00, 0x00, 0x00, 0x02, 0x00, 0x00, 0x00, 0xff, 0xff, 0xff, 0xff,
  0x40, 0x00, 0x00, 0x00, 0xe0, 0xf8, 0xff, 0xff, 0x0e, 0x00, 0x00, 0x00,
  0x74, 0x66, 0x6c, 0x2e, 0x64, 0x65, 0x71, 0x75, 0x61, 0x6e, 0x74, 0x69,
  0x7a, 0x65, 0x00, 0x00, 0x02, 0x00, 0x00, 0x00, 0x01, 0x00, 0x00, 0x00,
  0x40, 0x00, 0x00, 0x00, 0x6a, 0xfa, 0xff, 0xff, 0x00, 0x00, 0x00, 0x01,
  0x14, 0x00, 0x00, 0x00, 0x30, 0x00, 0x00, 0x00, 0x09, 0x00, 0x00, 0x00,
  0x00, 0x00, 0x00, 0x09, 0x3c, 0x00, 0x00, 0x00, 0xf4, 0xf9, 0xff, 0xff,
  0x08, 0x00, 0x00, 0x00, 0x10, 0x00, 0x00, 0x00, 0x01, 0x00, 0x00, 0x00,
  0x05, 0x00, 0x00, 0x00, 0x00, 0x00, 0x00, 0x00, 0x01, 0x00, 0x00, 0x00,
  0x69, 0x45, 0xeb, 0x3c, 0x12, 0x00, 0x00, 0x00, 0x74, 0x66, 0x6c, 0x2e,
  0x70, 0x73, 0x65, 0x75, 0x64, 0x6f, 0x5f, 0x71, 0x63, 0x6f, 0x6e, 0x73,
  0x74, 0x34, 0x00, 0x00, 0x02, 0x00, 0x00, 0x00, 0x53, 0x02, 0x00, 0x00,
  0x10, 0x00, 0x00, 0x00, 0xca, 0xfa, 0xff, 0xff, 0x00, 0x00, 0x00, 0x01,
  0x14, 0x00, 0x00, 0x00, 0xa8, 0x01, 0x00, 0x00, 0x08, 0x00, 0x00, 0x00,
  0x00, 0x00, 0x00, 0x09, 0xb4, 0x01, 0x00, 0x00, 0x54, 0xfa, 0xff, 0xff,
  0x08, 0x00, 0x00, 0x00, 0x0c, 0x01, 0x00, 0x00, 0x20, 0x00, 0x00, 0x00,
  0x00, 0x00, 0x00, 0x00, 0x00, 0x00, 0x00, 0x00, 0x00, 0x00, 0x00, 0x00,
  0x00, 0x00, 0x00, 0x00, 0x00, 0x00, 0x00, 0x00, 0x00, 0x00, 0x00, 0x00,
  0x00, 0x00, 0x00, 0x00, 0x00, 0x00, 0x00, 0x00, 0x00, 0x00, 0x00, 0x00,
  0x00, 0x00, 0x00, 0x00, 0x00, 0x00, 0x00, 0x00, 0x00, 0x00, 0x00, 0x00,
  0x00, 0x00, 0x00, 0x00, 0x00, 0x00, 0x00, 0x00, 0x00, 0x00, 0x00, 0x00,
  0x00, 0x00, 0x00, 0x00, 0x00, 0x00, 0x00, 0x00, 0x00, 0x00, 0x00, 0x00,
  0x00, 0x00, 0x00, 0x00, 0x00, 0x00, 0x00, 0x00, 0x00, 0x00, 0x00, 0x00,
  0x00, 0x00, 0x00, 0x00, 0x00, 0x00, 0x00, 0x00, 0x00, 0x00, 0x00, 0x00,
  0x00, 0x00, 0x00, 0x00, 0x00, 0x00, 0x00, 0x00, 0x00, 0x00, 0x00, 0x00,
  0x00, 0x00, 0x00, 0x00, 0x00, 0x00, 0x00, 0x00, 0x00, 0x00, 0x00, 0x00,
  0x00, 0x00, 0x00, 0x00, 0x00, 0x00, 0x00, 0x00, 0x00, 0x00, 0x00, 0x00,
  0x00, 0x00, 0x00, 0x00, 0x00, 0x00, 0x00, 0x00, 0x00, 0x00, 0x00, 0x00,
  0x00, 0x00, 0x00, 0x00, 0x00, 0x00, 0x00, 0x00, 0x00, 0x00, 0x00, 0x00,
  0x00, 0x00, 0x00, 0x00, 0x00, 0x00, 0x00, 0x00, 0x00, 0x00, 0x00, 0x00,
  0x00, 0x00, 0x00, 0x00, 0x00, 0x00, 0x00, 0x00, 0x00, 0x00, 0x00, 0x00,
  0x00, 0x00, 0x00, 0x00, 0x00, 0x00, 0x00, 0x00, 0x00, 0x00, 0x00, 0x00,
  0x00, 0x00, 0x00, 0x00, 0x00, 0x00, 0x00, 0x00, 0x00, 0x00, 0x00, 0x00,
  0x00, 0x00, 0x00, 0x00, 0x00, 0x00, 0x00, 0x00, 0x00, 0x00, 0x00, 0x00,
  0x00, 0x00, 0x00, 0x00, 0x00, 0x00, 0x00, 0x00, 0x00, 0x00, 0x00, 0x00,
  0x00, 0x00, 0x00, 0x00, 0x00, 0x00, 0x00, 0x00, 0x00, 0x00, 0x00, 0x00,
  0x00, 0x00, 0x00, 0x00, 0x00, 0x00, 0x00, 0x00, 0x00, 0x00, 0x00, 0x00,
  0x00, 0x00, 0x00, 0x00, 0x00, 0x00, 0x00, 0x00, 0x20, 0x00, 0x00, 0x00,
  0xa9, 0x99, 0x50, 0x3c, 0xce, 0x29, 0x23, 0x3b, 0xc6, 0x47, 0x35, 0x3b,
  0x48, 0xb9, 0x9b, 0x3c, 0x39, 0xa6, 0x33, 0x3b, 0x25, 0xa7, 0x42, 0x3b,
  0xe8, 0xc2, 0x66, 0x3c, 0x7a, 0x54, 0x96, 0x3c, 0x65, 0x70, 0x8b, 0x3c,
  0x7f, 0xdb, 0x42, 0x3b, 0x2f, 0xeb, 0xa8, 0x3c, 0x43, 0xd9, 0x46, 0x3b,
  0x7e, 0x1a, 0xbd, 0x3c, 0x45, 0x51, 0xa9, 0x3c, 0xfc, 0x3d, 0x8a, 0x3c,
  0x83, 0x18, 0x2f, 0x3b, 0x0a, 0x28, 0x9f, 0x3c, 0x55, 0x05, 0xbd, 0x3c,
  0x37, 0x95, 0x8f, 0x3c, 0x8e, 0x4b, 0x34, 0x3b, 0xe0, 0x59, 0xb8, 0x3c,
  0xed, 0x2f, 0xfb, 0x3c, 0x59, 0xd7, 0x4b, 0x3b, 0xe3, 0xc7, 0x60, 0x3b,
  0x2e, 0x82, 0x32, 0x3b, 0x4f, 0xf8, 0x5b, 0x3b, 0x1d, 0x7f, 0xa6, 0x3c,
  0xba, 0x17, 0x32, 0x3b, 0xe1, 0x7e, 0x4a, 0x3c, 0x89, 0xa3, 0x8b, 0x3c,
  0x6a, 0xc1, 0x41, 0x3b, 0x14, 0x58, 0x1c, 0x3b, 0x12, 0x00, 0x00, 0x00,
  0x74, 0x66, 0x6c, 0x2e, 0x70, 0x73, 0x65, 0x75, 0x64, 0x6f, 0x5f, 0x71,
  0x63, 0x6f, 0x6e, 0x73, 0x74, 0x33, 0x00, 0x00, 0x02, 0x00, 0x00, 0x00,
  0x20, 0x00, 0x00, 0x00, 0x10, 0x00, 0x00, 0x00, 0xa2, 0xfc, 0xff, 0xff,
  0x00, 0x00, 0x00, 0x01, 0x14, 0x00, 0x00, 0x00, 0xa4, 0x01, 0x00, 0x00,
  0x07, 0x00, 0x00, 0x00, 0x00, 0x00, 0x00, 0x02, 0xb0, 0x01, 0x00, 0x00,
  0x2c, 0xfc, 0xff, 0xff, 0x08, 0x00, 0x00, 0x00, 0x08, 0x01, 0x00, 0x00,
  0x20, 0x00, 0x00, 0x00, 0x00, 0x00, 0x00, 0x00, 0x00, 0x00, 0x00, 0x00,
  0x00, 0x00, 0x00, 0x00, 0x00, 0x00, 0x00, 0x00, 0x00, 0x00, 0x00, 0x00,
  0x00, 0x00, 0x00, 0x00, 0x00, 0x00, 0x00, 0x00, 0x00, 0x00, 0x00, 0x00,
  0x00, 0x00, 0x00, 0x00, 0x00, 0x00, 0x00, 0x00, 0x00, 0x00, 0x00, 0x00,
  0x00, 0x00, 0x00, 0x00, 0x00, 0x00, 0x00, 0x00, 0x00, 0x00, 0x00, 0x00,
  0x00, 0x00, 0x00, 0x00, 0x00, 0x00, 0x00, 0x00, 0x00, 0x00, 0x00, 0x00,
  0x00, 0x00, 0x00, 0x00, 0x00, 0x00, 0x00, 0x00, 0x00, 0x00, 0x00, 0x00,
  0x00, 0x00, 0x00, 0x00, 0x00, 0x00, 0x00, 0x00, 0x00, 0x00, 0x00, 0x00,
  0x00, 0x00, 0x00, 0x00, 0x00, 0x00, 0x00, 0x00, 0x00, 0x00, 0x00, 0x00,
  0x00, 0x00, 0x00, 0x00, 0x00, 0x00, 0x00, 0x00, 0x00, 0x00, 0x00, 0x00,
  0x00, 0x00, 0x00, 0x00, 0x00, 0x00, 0x00, 0x00, 0x00, 0x00, 0x00, 0x00,
  0x00, 0x00, 0x00, 0x00, 0x00, 0x00, 0x00, 0x00, 0x00, 0x00, 0x00, 0x00,
  0x00, 0x00, 0x00, 0x00, 0x00, 0x00, 0x00, 0x00, 0x00, 0x00, 0x00, 0x00,
  0x00, 0x00, 0x00, 0x00, 0x00, 0x00, 0x00, 0x00, 0x00, 0x00, 0x00, 0x00,
  0x00, 0x00, 0x00, 0x00, 0x00, 0x00, 0x00, 0x00, 0x00, 0x00, 0x00, 0x00,
  0x00, 0x00, 0x00, 0x00, 0x00, 0x00, 0x00, 0x00, 0x00, 0x00, 0x00, 0x00,
  0x00, 0x00, 0x00, 0x00, 0x00, 0x00, 0x00, 0x00, 0x00, 0x00, 0x00, 0x00,
  0x00, 0x00, 0x00, 0x00, 0x00, 0x00, 0x00, 0x00, 0x00, 0x00, 0x00, 0x00,
  0x00, 0x00, 0x00, 0x00, 0x00, 0x00, 0x00, 0x00, 0x00, 0x00, 0x00, 0x00,
  0x00, 0x00, 0x00, 0x00, 0x00, 0x00, 0x00, 0x00, 0x00, 0x00, 0x00, 0x00,
  0x00, 0x00, 0x00, 0x00, 0x00, 0x00, 0x00, 0x00, 0x00, 0x00, 0x00, 0x00,
  0x00, 0x00, 0x00, 0x00, 0x00, 0x00, 0x00, 0x00, 0x20, 0x00, 0x00, 0x00,
  0x4d, 0x56, 0x44, 0x38, 0x41, 0x92, 0x19, 0x37, 0x91, 0x9f, 0x2a, 0x37,
  0xb1, 0x91, 0x92, 0x38, 0x90, 0x16, 0x29, 0x37, 0xb0, 0x35, 0x37, 0x37,
  0x07, 0x32, 0x59, 0x38, 0x10, 0x7e, 0x8d, 0x38, 0xe3, 0x3d, 0x83, 0x38,
  0xf6, 0x66, 0x37, 0x37, 0x04, 0xfd, 0x9e, 0x38, 0xa9, 0x28, 0x3b, 0x37,
  0x8d, 0xfc, 0xb1, 0x38, 0x1a, 0x5d, 0x9f, 0x38, 0x7d, 0x1d, 0x82, 0x38,
  0x62, 0xcd, 0x24, 0x37, 0xca, 0xcc, 0x95, 0x38, 0xa2, 0xe8, 0xb1, 0x38,
  0x58, 0x24, 0x87, 0x38, 0x2d, 0xb2, 0x29, 0x37, 0x75, 0x83, 0xad, 0x38,
  0xa5, 0x6b, 0xec, 0x38, 0x9c, 0xdb, 0x3f, 0x37, 0x04, 0x91, 0x53, 0x37,
  0xb0, 0x03, 0x28, 0x37, 0xd6, 0x09, 0x4f, 0x37, 0x66, 0xb5, 0x9c, 0x38,
  0x7e, 0x9f, 0x27, 0x37, 0x64, 0x97, 0x3e, 0x38, 0x05, 0x6e, 0x83, 0x38,
  0x76, 0x5d, 0x36, 0x37, 0x28, 0x27, 0x13, 0x37, 0x12, 0x00, 0x00, 0x00,
  0x74, 0x66, 0x6c, 0x2e, 0x70, 0x73, 0x65, 0x75, 0x64, 0x6f, 0x5f, 0x71,
  0x63, 0x6f, 0x6e, 0x73, 0x74, 0x32, 0x00, 0x00, 0x01, 0x00, 0x00, 0x00,
  0x20, 0x00, 0x00, 0x00, 0x72, 0xfe, 0xff, 0xff, 0x00, 0x00, 0x00, 0x01,
  0x14, 0x00, 0x00, 0x00, 0x60, 0x00, 0x00, 0x00, 0x06, 0x00, 0x00, 0x00,
  0x00, 0x00, 0x00, 0x09, 0x6c, 0x00, 0x00, 0x00, 0xfc, 0xfd, 0xff, 0xff,
  0x08, 0x00, 0x00, 0x00, 0x30, 0x00, 0x00, 0x00, 0x05, 0x00, 0x00, 0x00,
  0x00, 0x00, 0x00, 0x00, 0x00, 0x00, 0x00, 0x00, 0x00, 0x00, 0x00, 0x00,
  0x00, 0x00, 0x00, 0x00, 0x00, 0x00, 0x00, 0x00, 0x00, 0x00, 0x00, 0x00,
  0x00, 0x00, 0x00, 0x00, 0x00, 0x00, 0x00, 0x00, 0x00, 0x00, 0x00, 0x00,
  0x00, 0x00, 0x00, 0x00, 0x05, 0x00, 0x00, 0x00, 0x3d, 0x5a, 0x82, 0x3c,
  0xb0, 0xf8, 0x92, 0x3c, 0x72, 0x1f, 0x97, 0x3c, 0x05, 0x7e, 0x50, 0x3c,
  0x0b, 0xb0, 0x77, 0x3c, 0x12, 0x00, 0x00, 0x00, 0x74, 0x66, 0x6c, 0x2e,
  0x70, 0x73, 0x65, 0x75, 0x64, 0x6f, 0x5f, 0x71, 0x63, 0x6f, 0x6e, 0x73,
  0x74, 0x31, 0x00, 0x00, 0x02, 0x00, 0x00, 0x00, 0x05, 0x00, 0x00, 0x00,
  0x20, 0x00, 0x00, 0x00, 0x02, 0xff, 0xff, 0xff, 0x00, 0x00, 0x00, 0x01,
  0x14, 0x00, 0x00, 0x00, 0x60, 0x00, 0x00, 0x00, 0x05, 0x00, 0x00, 0x00,
  0x00, 0x00, 0x00, 0x02, 0x6c, 0x00, 0x00, 0x00, 0x8c, 0xfe, 0xff, 0xff,
  0x08, 0x00, 0x00, 0x00, 0x30, 0x00, 0x00, 0x00, 0x05, 0x00, 0x00, 0x00,
  0x00, 0x00, 0x00, 0x00, 0x00, 0x00, 0x00, 0x00, 0x00, 0x00, 0x00, 0x00,
  0x00, 0x00, 0x00, 0x00, 0x00, 0x00, 0x00, 0x00, 0x00, 0x00, 0x00, 0x00,
  0x00, 0x00, 0x00, 0x00, 0x00, 0x00, 0x00, 0x00, 0x00, 0x00, 0x00, 0x00,
  0x00, 0x00, 0x00, 0x00, 0x05, 0x00, 0x00, 0x00, 0x75, 0x15, 0xf2, 0x38,
  0x4c, 0x79, 0x08, 0x39, 0x26, 0x54, 0x0c, 0x39, 0xb7, 0x99, 0xc1, 0x38,
  0x0c, 0xff, 0xe5, 0x38, 0x11, 0x00, 0x00, 0x00, 0x74, 0x66, 0x6c, 0x2e,
  0x70, 0x73, 0x65, 0x75, 0x64, 0x6f, 0x5f, 0x71, 0x63, 0x6f, 0x6e, 0x73,
  0x74, 0x00, 0x00, 0x00, 0x01, 0x00, 0x00, 0x00, 0x05, 0x00, 0x00, 0x00,
  0x8e, 0xff, 0xff, 0xff, 0x00, 0x00, 0x00, 0x01, 0x14, 0x00, 0x00, 0x00,
  0x14, 0x00, 0x00, 0x00, 0x04, 0x00, 0x00, 0x00, 0x00, 0x00, 0x00, 0x02,
  0x1c, 0x00, 0x00, 0x00, 0x44, 0xfe, 0xff, 0xff, 0x0f, 0x00, 0x00, 0x00,
  0x61, 0x72, 0x69, 0x74, 0x68, 0x2e, 0x63, 0x6f, 0x6e, 0x73, 0x74, 0x61,
  0x6e, 0x74, 0x32, 0x00, 0x00, 0x00, 0x00, 0x00, 0xc6, 0xff, 0xff, 0xff,
  0x00, 0x00, 0x00, 0x01, 0x14, 0x00, 0x00, 0x00, 0x14, 0x00, 0x00, 0x00,
  0x03, 0x00, 0x00, 0x00, 0x00, 0x00, 0x00, 0x02, 0x1c, 0x00, 0x00, 0x00,
  0x7c, 0xfe, 0xff, 0xff, 0x0f, 0x00, 0x00, 0x00, 0x61, 0x72, 0x69, 0x74,
  0x68, 0x2e, 0x63, 0x6f, 0x6e, 0x73, 0x74, 0x61, 0x6e, 0x74, 0x31, 0x00,
  0x00, 0x00, 0x00, 0x00, 0x00, 0x00, 0x16, 0x00, 0x1c, 0x00, 0x18, 0x00,
  0x17, 0x00, 0x10, 0x00, 0x0c, 0x00, 0x08, 0x00, 0x00, 0x00, 0x00, 0x00,
  0x00, 0x00, 0x07, 0x00, 0x16, 0x00, 0x00, 0x00, 0x00, 0x00, 0x00, 0x01,
  0x14, 0x00, 0x00, 0x00, 0x14, 0x00, 0x00, 0x00, 0x02, 0x00, 0x00, 0x00,
  0x00, 0x00, 0x00, 0x02, 0x1c, 0x00, 0x00, 0x00, 0xcc, 0xfe, 0xff, 0xff,
  0x0e, 0x00, 0x00, 0x00, 0x61, 0x72, 0x69, 0x74, 0x68, 0x2e, 0x63, 0x6f,
  0x6e, 0x73, 0x74, 0x61, 0x6e, 0x74, 0x00, 0x00, 0x00, 0x00, 0x00, 0x00,
  0x00, 0x00, 0x16, 0x00, 0x20, 0x00, 0x1c, 0x00, 0x1b, 0x00, 0x14, 0x00,
  0x10, 0x00, 0x0c, 0x00, 0x00, 0x00, 0x00, 0x00, 0x08, 0x00, 0x07, 0x00,
  0x16, 0x00, 0x00, 0x00, 0x00, 0x00, 0x00, 0x01, 0x18, 0x00, 0x00, 0x00,
  0x2c, 0x00, 0x00, 0x00, 0x4c, 0x00, 0x00, 0x00, 0x01, 0x00, 0x00, 0x00,
  0x00, 0x00, 0x00, 0x09, 0x64, 0x00, 0x00, 0x00, 0x02, 0x00, 0x00, 0x00,
  0xff, 0xff, 0xff, 0xff, 0x40, 0x00, 0x00, 0x00, 0x0c, 0x00, 0x0c, 0x00,
  0x00, 0x00, 0x00, 0x00, 0x08, 0x00, 0x04, 0x00, 0x0c, 0x00, 0x00, 0x00,
  0x08, 0x00, 0x00, 0x00, 0x14, 0x00, 0x00, 0x00, 0x01, 0x00, 0x00, 0x00,
  0x80, 0xff, 0xff, 0xff, 0xff, 0xff, 0xff, 0xff, 0x00, 0x00, 0x00, 0x00,
  0x01, 0x00, 0x00, 0x00, 0x11, 0x11, 0x11, 0x40, 0x1e, 0x00, 0x00, 0x00,
  0x73, 0x65, 0x72, 0x76, 0x69, 0x6e, 0x67, 0x5f, 0x64, 0x65, 0x66, 0x61,
  0x75, 0x6c, 0x74, 0x5f, 0x6b, 0x65, 0x72, 0x61, 0x73, 0x5f, 0x74, 0x65,
  0x6e, 0x73, 0x6f, 0x72, 0x3a, 0x30, 0x00, 0x00, 0x02, 0x00, 0x00, 0x00,
  0x01, 0x00, 0x00, 0x00, 0x40, 0x00, 0x00, 0x00, 0x09, 0x00, 0x00, 0x00,
  0xa8, 0x00, 0x00, 0x00, 0x8c, 0x00, 0x00, 0x00, 0x70, 0x00, 0x00, 0x00,
  0x68, 0x00, 0x00, 0x00, 0x54, 0x00, 0x00, 0x00, 0x40, 0x00, 0x00, 0x00,
  0x2c, 0x00, 0x00, 0x00, 0x18, 0x00, 0x00, 0x00, 0x04, 0x00, 0x00, 0x00,
  0x88, 0xff, 0xff, 0xff, 0x19, 0x00, 0x00, 0x00, 0x02, 0x00, 0x00, 0x00,
  0x00, 0x00, 0x00, 0x19, 0x98, 0xff, 0xff, 0xff, 0x09, 0x00, 0x00, 0x00,
  0x04, 0x00, 0x00, 0x00, 0x00, 0x00, 0x00, 0x09, 0xa8, 0xff, 0xff, 0xff,
  0x28, 0x00, 0x00, 0x00, 0x02, 0x00, 0x00, 0x00, 0x00, 0x00, 0x00, 0x28,
  0xb8, 0xff, 0xff, 0xff, 0x24, 0x00, 0x00, 0x00, 0x02, 0x00, 0x00, 0x00,
  0x00, 0x00, 0x00, 0x24, 0xe0, 0xff, 0xff, 0xff, 0x7b, 0x00, 0x00, 0x00,
  0x00, 0x00, 0x00, 0x7b, 0x04, 0x00, 0x04, 0x00, 0x04, 0x00, 0x00, 0x00,
  0xf4, 0xff, 0xff, 0xff, 0x3a, 0x00, 0x00, 0x00, 0x00, 0x00, 0x00, 0x3a,
  0x0c, 0x00, 0x0c, 0x00, 0x0b, 0x00, 0x00, 0x00, 0x00, 0x00, 0x04, 0x00,
  0x0c, 0x00, 0x00, 0x00, 0x35, 0x00, 0x00, 0x00, 0x00, 0x00, 0x00, 0x35,
  0x0c, 0x00, 0x10, 0x00, 0x0f, 0x00, 0x00, 0x00, 0x08, 0x00, 0x04, 0x00,
  0x0c, 0x00, 0x00, 0x00, 0x06, 0x00, 0x00, 0x00, 0x02, 0x00, 0x00, 0x00,
  0x00, 0x00, 0x00, 0x06,
};

const unsigned int tone_model_tflite_len = 14800;

#endif // MODEL_DATA_H
